<pad>	0
<unk>	0
<s>	0
</s>	0
▁क	-0
▁स	-1
्य	-2
्र	-3
▁प	-4
▁ह	-5
▁म	-6
्त	-7
▁अ	-8
▁व	-9
ार	-10
ान	-11
▁न	-12
र्	-13
▁द	-14
▁है	-15
▁त	-16
▁प्र	-17
ित	-18
▁के	-19
▁ज	-20
▁भ	-21
▁र	-22
्व	-23
या	-24
ति	-25
म्	-26
▁आ	-27
▁ब	-28
ें	-29
▁श	-30
ता	-31
न्	-32
▁ग	-33
त्	-34
स्य	-35
▁उ	-36
िक	-37
्ष	-38
ों	-39
▁च	-40
▁ल	-41
ना	-42
▁में	-43
▁वि	-44
▁य	-45
▁।	-46
ाल	-47
न्त	-48
ने	-49
▁कर	-50
स्	-51
त्र	-52
्या	-53
▁इ	-54
ाम	-55
▁को	-56
▁से	-57
क्ष	-58
ते	-59
स्त	-60
ष्	-61
▁कि	-62
मा	-63
▁ए	-64
▁का	-65
▁पर	-66
▁की	-67
ां	-68
वि	-69
हा	-70
ृत	-71
▁हो	-72
▁सं	-73
र्व	-74
▁रा	-75
ुर	-76
▁नि	-77
▁हैं	-78
▁औ	-79
ेश	-80
द्	-81
▁और	-82
ती	-83
न्द	-84
कर	-85
था	-86
्री	-87
िय	-88
▁ने	-89
वा	-90
कार	-91
का	-92
के	-93
ही	-94
▁स्	-95
क्त	-96
▁सम	-97
ष्ट	-98
रा	-99
ला	-100
ोग	-101
▁जा	-102
भा	-103
▁अप	-104
ान्	-105
▁भी	-106
च्	-107
▁ध	-108
▁सु	-109
▁दे	-110
िए	-111
ड़	-112
▁कार	-113
▁दि	-114
▁सा	-115
▁स्व	-116
▁इस	-117
ाप	-118
▁अन	-119
त्त	-120
द्य	-121
से	-122
ाय	-123
ार्	-124
रे	-125
द्ध	-126
▁राज	-127
मि	-128
प्र	-129
दि	-130
▁मु	-131
ास	-132
ाः	-133
त्य	-134
ाह	-135
री	-136
▁अध	-137
ेन	-138
▁कु	-139
▁एक	-140
ेष	-141
न्ति	-142
हीं	-143
तः	-144
सी	-145
▁ख	-146
ाद	-147
स्ति	-148
च्छ	-149
ङ्	-150
ोज	-151
ष्य	-152
▁हु	-153
ल्	-154
▁नहीं	-155
्ञ	-156
▁पु	-157
▁वह	-158
नी	-159
नि	-160
▁लिए	-161
▁सर्व	-162
्च	-163
नं	-164
▁किया	-165
ये	-166
दा	-167
देश	-168
▁संस्	-169
कृत	-170
▁भार	-171
्रम	-172
ले	-173
ाण	-174
ूप	-175
▁ही	-176
▁कार्य	-177
र्म	-178
ानि	-179
▁फ	-180
▁उप	-181
▁उस	-182
र्ण	-183
वान्	-184
▁द्व	-185
र्ष	-186
गा	-187
िर	-188
▁अस्ति	-189
स्थ	-190
ारा	-191
्ड	-192
▁अभ	-193
▁पू	-194
▁॥	-195
▁अव	-196
▁भव	-197
मान	-198
▁?	-199
िक्ष	-200
▁प्रति	-201
श्व	-202
▁घ	-203
▁गया	-204
▁भा	-205
्वा	-206
▁कहा	-207
▁छ	-208
िं	-209
▁मह	-210
ालय	-211
सा	-212
धान	-213
▁यह	-214
चार	-215
तु	-216
पि	-217
ैं	-218
ली	-219
▁तु	-220
ज्ञ	-221
▁मा	-222
रण	-223
▁सः	-224
▁श्री	-225
र्त	-226
सं	-227
▁बह	-228
ग्र	-229
मे	-230
▁यत्	-231
दी	-232
▁मे	-233
▁सम्	-234
ित्र	-235
▁राज्य	-236
यं	-237
▁(	-238
▁ड	-239
▁प्राप	-240
याः	-241
▁थ	-242
▁संस्कृत	-243
▁स्थ	-244
▁करने	-245
न्न	-246
ुरु	-247
िया	-248
▁रह	-249
की	-250
ंत्र	-251
▁हि	-252
भी	-253
▁या	-254
▁सह	-255
ढ़	-256
न्द्र	-257
ानां	-258
ोध	-259
ख्य	-260
ण्ड	-261
द्र	-262
ूँ	-263
▁अपि	-264
िव	-265
िल	-266
▁इति	-267
जी	-268
ष्ठ	-269
▁अनु	-270
िस	-271
िता	-272
िका	-273
▁मैं	-274
▁कृत	-275
श्च	-276
▁आप	-277
▁मन	-278
▁जी	-279
▁क्ष	-280
▁एव	-281
गे	-282
ुं	-283
ुत	-284
क्	-285
को	-286
ध्य	-287
▁वाल	-288
▁दो	-289
पर	-290
▁राम	-291
ेण	-292
ुद्ध	-293
▁दु	-294
िन	-295
▁निर्	-296
िः	-297
्म	-298
स्मि	-299
श्य	-300
▁कृ	-301
िये	-302
ार्थ	-303
▁जो	-304
▁प्राप्त	-305
क्षा	-306
ओं	-307
ाना	-308
िण	-309
▁भारत	-310
र्थ	-311
ोक	-312
▁पा	-313
र्श	-314
ेषु	-315
ाने	-316
ब्	-317
▁दू	-318
▁अह	-319
व्य	-320
▁हूँ	-321
नों	-322
ीय	-323
ष्यति	-324
▁चाह	-325
▁वे	-326
रं	-327
▁ले	-328
▁तो	-329
▁वा	-330
ंत्री	-331
ारी	-332
▁वर्ष	-333
ुक्त	-334
क्रम	-335
ियों	-336
गी	-337
वत्	-338
▁हम	-339
▁साथ	-340
▁हुए	-341
्यः	-342
पू	-343
▁अधिक	-344
▁व्य	-345
▁द्वारा	-346
मन्त	-347
▁आय	-348
▁मुख्य	-349
जा	-350
▁जन	-351
न्ह	-352
▁ना	-353
▁विष	-354
▁शिक्ष	-355
▁पह	-356
▁देख	-357
कु	-358
▁लोग	-359
कृ	-360
सार	-361
स्मिन्	-362
▁सर	-363
▁इत्य	-364
प्त	-365
▁हे	-366
▁था	-367
ेत्र	-368
टी	-369
पा	-370
▁समा	-371
▁नाम	-372
▁सब	-373
▁सू	-374
लं	-375
यः	-376
ग्	-377
मु	-378
▁श्र	-379
द्यालय	-380
वे	-381
द्व	-382
▁तथा	-383
सि	-384
ान्त	-385
ाला	-386
स्त्र	-387
ूल	-388
न्तु	-389
गर	-390
ेल	-391
क्र	-392
▁दी	-393
▁भवि	-394
▁करो	-395
▁सभी	-396
▁विश्व	-397
▁उन	-398
▁उत्त	-399
ञ्च	-400
योग	-401
▁बाल	-402
णं	-403
ोह	-404
णा	-405
▁रूप	-406
▁!	-407
र्य	-408
म्ब	-409
न्ध	-410
▁जाता	-411
ङ्ग	-412
▁तस्य	-413
िला	-414
कं	-415
▁चल	-416
जन	-417
चल	-418
भाग	-419
यां	-420
ृह	-421
ात्र	-422
ष्ट्र	-423
ाव	-424
▁उत्	-425
▁दिया	-426
▁आग	-427
▁उन्ह	-428
िम	-429
च्च	-430
ैः	-431
कः	-432
दान	-433
ात	-434
ीन	-435
ोल	-436
दे	-437
▁करते	-438
▁भू	-439
▁गु	-440
ारे	-441
िंह	-442
▁देश	-443
▁-	-444
सीत्	-445
षा	-446
▁करता	-447
▁रहा	-448
ितः	-449
▁स्म	-450
▁हुआ	-451
हाँ	-452
▁समय	-453
▁अपने	-454
▁ते	-455
▁वै	-456
▁देव	-457
ोंने	-458
▁होता	-459
▁थे	-460
नः	-461
यो	-462
▁प्रश	-463
मंत्री	-464
▁आसीत्	-465
▁–	-466
▁दृ	-467
▁धन	-468
▁प्रधान	-469
भाव	-470
▁प्रकार	-471
▁आर	-472
▁अहं	-473
ामि	-474
मार	-475
▁विश	-476
ंग	-477
सरे	-478
▁तक	-479
क्ति	-480
▁छात्र	-481
ुना	-482
▁गई	-483
::	-484
त्या	-485
▁ज्ञ	-486
भू	-487
▁पुत्र	-488
▁विक	-489
ीर	-490
माण	-491
र्ध	-492
में	-493
स्व	-494
ट्	-495
ुप	-496
यति	-497
ोप	-498
▁त्व	-499
ष्ण	-500
▁ग्र	-501
ोद	-502
न्तः	-503
▁महा	-504
▁सन्ति	-505
▁पी	-506
नाः	-507
तं	-508
रूप	-509
▁तुम	-510
▁पूर्व	-511
काश	-512
▁लक्ष	-513
▁ब्र	-514
▁डॉ	-515
त्म	-516
▁अन्य	-517
▁सी	-518
▁उन्होंने	-519
ैव	-520
▁हिमा	-521
वन	-522
▁व्या	-523
▁क्या	-524
वार	-525
्रीय	-526
िख	-527
ोजन	-528
▁योग	-529
▁भविष्यति	-530
▁अर्	-531
▁करना	-532
▁प्रा	-533
शा	-534
▁बहुत	-535
▁भवति	-536
▁बाद	-537
▁ऐ	-538
भ्यः	-539
▁क्र	-540
▁स्त	-541
राम	-542
ड़ा	-543
▁'	-544
▁वृ	-545
थाप	-546
चित	-547
ंद	-548
▁ला	-549
▁भारती	-550
▁बि	-551
शी	-552
▁जान	-553
▁क्षेत्र	-554
दर्श	-555
▁पुर	-556
▁सुख	-557
▁अध्य	-558
सर	-559
पुर	-560
ुः	-561
▁कारण	-562
▁एत	-563
▁सो	-564
श्र	-565
▁सरकार	-566
▁भग	-567
▁शी	-568
ार्ग	-569
▁मो	-570
▁कार्यक्रम	-571
्ज	-572
र्ग	-573
काल	-574
▁जिस	-575
▁वाले	-576
षु	-577
▁राष्ट्र	-578
ितं	-579
▁धर्म	-580
्यं	-581
त्व	-582
न्त्र	-583
विध	-584
नम्	-585
ोजना	-586
▁स्थान	-587
रि	-588
▁हिमाचल	-589
▁कर्त	-590
सम	-591
दत्	-592
ोष	-593
▁रहे	-594
▁अति	-595
▁अं	-596
▁सक	-597
ानी	-598
▁गच्छ	-599
धिक	-600
द्या	-601
▁गृह	-602
▁जाए	-603
▁कह	-604
विद्यालय	-605
▁ओ	-606
▁मम	-607
▁शु	-608
पति	-609
ितम्	-610
▁कौ	-611
नु	-612
कि	-613
वी	-614
सु	-615
करण	-616
▁आज	-617
▁मान	-618
मन्त्री	-619
राज	-620
युक्त	-621
''	-622
ाणि	-623
ंड	-624
पूर्ण	-625
ोऽ	-626
▁अवदत्	-627
ुरुष	-628
भि	-629
धार	-630
▁गुरु	-631
▁हा	-632
▁काम	-633
▁साम	-634
▁सर्वे	-635
ानं	-636
▁अब	-637
ग्रे	-638
▁घर	-639
नेन	-640
▁ये	-641
▁उद्	-642
▁परि	-643
▁जल	-644
िताः	-645
▁उसके	-646
▁लोक	-647
हार	-648
्यते	-649
▁,	-650
▁भारतीय	-651
▁ट	-652
णां	-653
▁दोनों	-654
▁यु	-655
स्था	-656
नस्य	-657
मी	-658
▁स्वा	-659
▁गए	-660
▁चाहिए	-661
न्ते	-662
▁तब	-663
▁आस	-664
▁रही	-665
चना	-666
ित्य	-667
▁अभवत्	-668
न्म	-669
ौर	-670
▁समान	-671
▁मनु	-672
▁त्र	-673
▁वर्त	-674
▁कर्म	-675
सभा	-676
पी	-677
जे	-678
▁कल	-679
थम	-680
ब्द	-681
िति	-682
णि	-683
यित	-684
▁अस्मिन्	-685
▁आयोज	-686
ज्ञान	-687
कों	-688
वाद	-689
क्षण	-690
▁पढ़	-691
वती	-692
▁उक्त	-693
चा	-694
ड़े	-695
▁थी	-696
▁भाग	-697
▁तत्र	-698
▁बी	-699
र्मा	-700
धि	-701
▁नी	-702
्मण	-703
▁दिन	-704
काः	-705
ित्	-706
▁मेरे	-707
▁केव	-708
▁अस्य	-709
▁स्थाप	-710
चन	-711
वन्तः	-712
ुन	-713
▁पद	-714
▁माता	-715
▁कुर्व	-716
▁कुछ	-717
भव	-718
▁लिख	-719
▁हुई	-720
▁बा	-721
▁प्रव	-722
▁जग	-723
▁शा	-724
▁बढ़	-725
▁मनुष्य	-726
▁आदि	-727
▁पृ	-728
दृ	-729
कृति	-730
ृत्त	-731
▁ई	-732
मेव	-733
ल्प	-734
वस	-735
ठा	-736
खा	-737
स्तु	-738
▁करके	-739
▁विषय	-740
▁कथ	-741
▁कृते	-742
▁काल	-743
▁अने	-744
▁प्रदेश	-745
▁आव	-746
▁बहु	-747
▁लोगों	-748
नां	-749
्यों	-750
▁होने	-751
▁लिये	-752
▁1	-753
यन	-754
ड़ी	-755
पु	-756
▁सिंह	-757
ृत्य	-758
धा	-759
▁कम	-760
▁परिव	-761
देव	-762
▁पहले	-763
टा	-764
म्भ	-765
▁यदि	-766
▁फिर	-767
हर	-768
स्मा	-769
▁कोई	-770
▁विद्य	-771
ानु	-772
▁सि	-773
▁अद्य	-774
▁जब	-775
▁पुरुष	-776
तर	-777
षण	-778
योः	-779
घा	-780
मः	-781
ंद्र	-782
▁इन	-783
▁युद्ध	-784
हि	-785
मन्त्र	-786
▁बै	-787
भिः	-788
▁ज्ञान	-789
ख्या	-790
▁उत्प	-791
▁वार	-792
▁बो	-793
ित्त	-794
न्तरं	-795
▁ऊ	-796
▁शि	-797
टन	-798
वरी	-799
ैसे	-800
दन	-801
▁सुन	-802
त्स	-803
▁श्रीराम	-804
▁किं	-805
▁ब्रह	-806
▁दृष्ट	-807
मपि	-808
▁ऋ	-809
▁इच्छ	-810
▁बोल	-811
▁रुप	-812
्न	-813
्यां	-814
▁मिल	-815
▁विद्यालय	-816
सिंह	-817
जय	-818
▁अभि	-819
▁ती	-820
ेषां	-821
त्वा	-822
▁करोति	-823
ग्रह	-824
लस्य	-825
▁पि	-826
▁मुझ	-827
त्रा	-828
▁करें	-829
ेय	-830
ाली	-831
तन	-832
▁मि	-833
▁मार्ग	-834
▁परन्तु	-835
▁खा	-836
▁चि	-837
न्तं	-838
पद	-839
न्दर	-840
▁जि	-841
▁अन्त	-842
▁होती	-843
ैन	-844
▁प्रे	-845
ताः	-846
शाला	-847
ब्ध	-848
स्म	-849
▁एवं	-850
▁विभाग	-851
भार	-852
ध्यम	-853
▁शरी	-854
▁शिक्षा	-855
▁वहाँ	-856
▁अध्यक्ष	-857
▁मुख्यमंत्री	-858
▁विध	-859
▁अधुना	-860
वास	-861
▁छो	-862
चित्र	-863
स्थान	-864
▁पाठ	-865
▁प्रत्य	-866
▁शीघ	-867
मन	-868
::::	-869
▁जनाः	-870
ल्ल	-871
▁द्र	-872
▁प्रस	-873
▁उनके	-874
▁नव	-875
▁मित्र	-876
टे	-877
ोर	-878
▁तर	-879
▁स्वी	-880
गत	-881
तां	-882
सर्व	-883
म्ह	-884
▁रो	-885
▁सुर	-886
कार्य	-887
▁पुस्त	-888
्यू	-889
ितवान्	-890
वः	-891
▁दत्त	-892
▁विषये	-893
▁विकास	-894
ोति	-895
त्मा	-896
यत्	-897
▁क्यों	-898
▁तुम्ह	-899
धी	-900
शि	-901
्याः	-902
बा	-903
प्रति	-904
स्कार	-905
▁राजा	-906
प्रदेश	-907
▁पठ	-908
▁हर	-909
▁बना	-910
▁पर्य	-911
लि	-912
▁सत्य	-913
▁इत्यस्य	-914
▁फल	-915
▁पिता	-916
▁बार	-917
▁निर्माण	-918
मुख	-919
शु	-920
▁समु	-921
▁प्रो	-922
हाय	-923
▁वद	-924
तिः	-925
िकित्	-926
फल	-927
टर	-928
।।	-929
▁उपस्थ	-930
एँ	-931
▁भाषा	-932
▁प्राण	-933
पाल	-934
▁उत्तर	-935
ज्ज	-936
तम्	-937
लोक	-938
▁तदा	-939
▁मध्य	-940
▁होगा	-941
जार	-942
▁सद	-943
बन्ध	-944
ेत	-945
ग्रेस	-946
▁प्रथम	-947
▁गा	-948
▁भर	-949
▁जन्म	-950
क्षेत्र	-951
▁चित्र	-952
▁विशेष	-953
वर	-954
▁गुण	-955
चार्य	-956
ेद	-957
शिक्ष	-958
वण	-959
▁उद्य	-960
▁वाला	-961
गु	-962
▁होकर	-963
▁गी	-964
▁१	-965
▁मू	-966
▁वर्तते	-967
▁रेल	-968
▁"	-969
ङ्क	-970
ात्	-971
▁2	-972
्रीड	-973
▁बात	-974
▁लिया	-975
ष्ट्रीय	-976
▁दर्श	-977
सर्वकार	-978
ेष्ठ	-979
▁प्रधानमंत्री	-980
तो	-981
▁सौ	-982
ामी	-983
▁दूर	-984
▁शब्द	-985
पक्ष	-986
ानाम्	-987
▁पुनः	-988
▁मंत्री	-989
▁होते	-990
कम्	-991
▁अम	-992
▁योजना	-993
▁महिला	-994
▁विद्या	-995
चि	-996
धन	-997
▁व्यव	-998
▁इसके	-999
▁चाहिये	-1000
ार्थं	-1001
▁वन	-1002
▁गो	-1003
न्या	-1004
▁पार	-1005
सू	-1006
▁अनेक	-1007
▁जाते	-1008
ाणां	-1009
▁किस	-1010
▁बन	-1011
▁अच्छ	-1012
▁करती	-1013
▁त्वं	-1014
▁तत्	-1015
▁जीवन	-1016
▁बे	-1017
मह	-1018
▁किसी	-1019
▁आयोजित	-1020
▁स्थित	-1021
वाल	-1022
▁पास	-1023
▁मोदी	-1024
▁प्रस्त	-1025
्यका	-1026
▁पञ्च	-1027
र्ज	-1028
▁शरीर	-1029
▁कुमार	-1030
ष्यन्ति	-1031
त्त्व	-1032
▁रुपये	-1033
ीं	-1034
▁२	-1035
▁आवश्य	-1036
▁जाएगा	-1037
ुरू	-1038
वर्ष	-1039
▁कर्तुं	-1040
एस	-1041
रिक	-1042
▁अय	-1043
▁अतः	-1044
▁निर	-1045
▁कृतवान्	-1046
▁जीव	-1047
▁केवल	-1048
▁उद्घा	-1049
▁स्प	-1050
पूर्व	-1051
▁प्रकाश	-1052
▁अर्ज	-1053
भ्य	-1054
▁अथ	-1055
▁मं	-1056
गम	-1057
िप	-1058
वरण	-1059
स्र	-1060
▁मत	-1061
▁वेद	-1062
्ता	-1063
▁पं	-1064
िल्	-1065
शः	-1066
ष्या	-1067
▁तेन	-1068
▁मूल	-1069
▁ऐसा	-1070
ासन	-1071
▁विचार	-1072
▁हाथ	-1073
▁भोजन	-1074
ुम्	-1075
▁बैठ	-1076
▁विश्वविद्यालय	-1077
▁धार	-1078
▁यहाँ	-1079
▁सेवा	-1080
▁सर्वकार	-1081
लिए	-1082
ल्ली	-1083
▁सकता	-1084
ृद	-1085
रः	-1086
सम्	-1087
▁बुद्ध	-1088
▁पृथ	-1089
▁भगव	-1090
▁अत्य	-1091
▁अत्र	-1092
▁ठ	-1093
र्प	-1094
बोध	-1095
▁लग	-1096
संस्	-1097
▁विर	-1098
पाद	-1099
▁यज्ञ	-1100
▁बल	-1101
▁मध	-1102
▁इत्या	-1103
▁सूर्य	-1104
ण्	-1105
तम	-1106
▁भाज	-1107
▁कृत्वा	-1108
ेत्	-1109
▁यदा	-1110
▁मुझे	-1111
ग्नि	-1112
▁जाने	-1113
▁जाती	-1114
▁आन	-1115
▁करे	-1116
▁कुल	-1117
ीप	-1118
ूह	-1119
शं	-1120
▁मन्त्र	-1121
▁प्रदर्श	-1122
▁तप	-1123
▁चिकित्	-1124
▁देखकर	-1125
▁दश	-1126
कस्य	-1127
▁यथा	-1128
▁शुरू	-1129
कता	-1130
तुं	-1131
▁रु	-1132
▁शीघ्र	-1133
▁अनुसार	-1134
▁जय	-1135
थि	-1136
ाज	-1137
ञ्ज	-1138
▁कौन	-1139
▁न्या	-1140
▁नर	-1141
▁परम	-1142
क्ख	-1143
र्वा	-1144
▁चिन्त	-1145
▁नू	-1146
▁परी	-1147
वाह	-1148
▁दुर्	-1149
▁पत्र	-1150
▁वयं	-1151
▁निक	-1152
▁रक्षा	-1153
▁आगच्छ	-1154
लो	-1155
▁झ	-1156
▁गण	-1157
▁बु	-1158
▁उसे	-1159
▁पुल	-1160
▁राक्ष	-1161
▁रख	-1162
पर्य	-1163
▁वाय	-1164
▁मन्द	-1165
िनी	-1166
▁करि	-1167
ेव	-1168
र्चा	-1169
▁उसका	-1170
▁चलचित्र	-1171
कट	-1172
टना	-1173
▁तीन	-1174
▁अस्मा	-1175
▁दुः	-1176
▁जाना	-1177
▁वृद्ध	-1178
▁प्रशिक्ष	-1179
रु	-1180
▁निय	-1181
चन्द्र	-1182
▁माध्यम	-1183
सिद्ध	-1184
कुमार	-1185
▁कृतम्	-1186
▁लक्ष्मण	-1187
▁अपनी	-1188
यान	-1189
यितुं	-1190
▁उच्च	-1191
▁।।	-1192
▁ध्य	-1193
▁उसने	-1194
मन्त्रिण	-1195
▁|	-1196
क्षिण	-1197
▁निर्ण	-1198
चे	-1199
▁पश्य	-1200
▁गृ	-1201
▁निर्म	-1202
दू	-1203
मेल	-1204
▁आसन्	-1205
▁देने	-1206
▁अवसर	-1207
▁आह	-1208
ोभ	-1209
▁घोष	-1210
▁पूर्ण	-1211
▁दा	-1212
▁विधान	-1213
▁सिद्ध	-1214
▁अधिकार	-1215
नीय	-1216
िल्म	-1217
वेद	-1218
▁कोट	-1219
▁पर्व	-1220
णी	-1221
▁बच्च	-1222
▁वाली	-1223
तार	-1224
पत्र	-1225
▁दुःख	-1226
▁ब्रह्म	-1227
▁वृक्ष	-1228
ड्ड	-1229
▁अर्थ	-1230
▁निर्देश	-1231
▁कै	-1232
▁समार	-1233
▁सीता	-1234
बर	-1235
ग्ध	-1236
▁मार्	-1237
ङ्के	-1238
▁सभा	-1239
▁वर्ध	-1240
विक	-1241
▁चार	-1242
▁व्यक्ति	-1243
▁एते	-1244
ंश	-1245
तया	-1246
ापि	-1247
▁चतु	-1248
▁अयोध	-1249
वासरे	-1250
ंध	-1251
स्थ्य	-1252
ग्री	-1253
▁यावत्	-1254
ेट	-1255
ज्ञा	-1256
..	-1257
प्	-1258
दाय	-1259
्याप	-1260
▁पुस्तक	-1261
▁अग	-1262
▁दिना	-1263
▁गच्छति	-1264
यि	-1265
भिन्न	-1266
▁शर्मा	-1267
▁रक्ष	-1268
▁रावण	-1269
विभाग	-1270
▁अस	-1271
▁पक्ष	-1272
ञ्	-1273
ट्ट	-1274
ालन	-1275
▁प्रिय	-1276
▁भ्र	-1277
▁शिव	-1278
न्य	-1279
मास	-1280
विष	-1281
▁तै	-1282
▁श्व	-1283
▁केंद्र	-1284
यी	-1285
स्प	-1286
▁युक्त	-1287
▁प्रसन्न	-1288
शल	-1289
▁कां	-1290
▁तर्	-1291
▁उसकी	-1292
▁चर्चा	-1293
ुल	-1294
वेश	-1295
स्ते	-1296
▁सप्त	-1297
▁बिना	-1298
▁ओर	-1299
▁तरह	-1300
डी	-1301
कुर	-1302
▁मौ	-1303
▁आत्म	-1304
मू	-1305
गरे	-1306
▁उद	-1307
▁गत	-1308
▁मै	-1309
ाण्ड	-1310
▁साध	-1311
▁जैसे	-1312
▁राष्ट्रीय	-1313
ंस	-1314
दल	-1315
▁दृश्य	-1316
ऽपि	-1317
वृत्त	-1318
▁अपना	-1319
▁उत्स	-1320
▁योग्य	-1321
▁वर्षे	-1322
▁उत्पन्न	-1323
र्भ	-1324
▁पै	-1325
▁मुख	-1326
▁राक्षस	-1327
▁मुख्यमन्त्री	-1328
▁शाम	-1329
▁मेरी	-1330
▁नास्ति	-1331
▁सेव	-1332
▁भगवान्	-1333
▁अर्था	-1334
ज्	-1335
ेक	-1336
▁बाह	-1337
बी	-1338
▁नौ	-1339
श्रम	-1340
▁सदा	-1341
▁क्रीड	-1342
ष्प	-1343
▁खेल	-1344
▁पत्	-1345
▁मार	-1346
▁हों	-1347
▁जनवरी	-1348
ण्य	-1349
▁बालक	-1350
▁हजार	-1351
▁भाजपा	-1352
दत्त	-1353
▁चरण	-1354
▁आधार	-1355
▁अग्नि	-1356
▁सां	-1357
▁समाप्त	-1358
चर	-1359
▁भारतस्य	-1360
▁मां	-1361
क्रिया	-1362
रूपेण	-1363
▁मेरा	-1364
न्तर	-1365
▁लाभ	-1366
▁छोड़	-1367
बल	-1368
लय	-1369
▁मी	-1370
▁वाह	-1371
▁वस्त्र	-1372
हास	-1373
स्या	-1374
संस्कृत	-1375
▁विधानसभा	-1376
▁सम्पूर्ण	-1377
▁)	-1378
चरण	-1379
ान्य	-1380
▁प्राय	-1381
▁उत्तरा	-1382
▁उसी	-1383
▁बारे	-1384
िंग	-1385
्याण	-1386
▁कभी	-1387
▁रोग	-1388
▁नम	-1389
▁दीप	-1390
▁माँ	-1391
▁विभिन्न	-1392
▁शास्त्र	-1393
▁त्रि	-1394
शास्त्र	-1395
इस	-1396
कुल	-1397
▁दूसरे	-1398
िनः	-1399
्यास	-1400
▁सहाय	-1401
▁निश्च	-1402
▁विमान	-1403
▁उक्तवान्	-1404
षि	-1405
▁बीच	-1406
▁एतत्	-1407
▁विस्त	-1408
णे	-1409
▁पां	-1410
▁प्रातः	-1411
भाष	-1412
▁युव	-1413
सद	-1414
कूल	-1415
काले	-1416
▁गये	-1417
▁पुन	-1418
▁वीर	-1419
▁सम्प	-1420
▁लो	-1421
▁पानी	-1422
▁दिल्ली	-1423
▁केन्द्र	-1424
हित	-1425
▁क्योंकि	-1426
ची	-1427
भग	-1428
नान	-1429
▁इसी	-1430
▁शान्त	-1431
▁संस्थ	-1432
ाम्	-1433
ताओं	-1434
वर्त	-1435
▁अथवा	-1436
▁न्यू	-1437
▁कृष्ण	-1438
▁प्रभाव	-1439
▁ति	-1440
ैनिक	-1441
▁गाय	-1442
▁शुभ	-1443
▁चुना	-1444
▁नगर	-1445
▁इन्द्र	-1446
▁भक्त	-1447
▁समारोह	-1448
▁पुरस्कार	-1449
ुरा	-1450
▁देता	-1451
▁प्रया	-1452
चिव	-1453
▁अल	-1454
खण्ड	-1455
र्थं	-1456
▁ततः	-1457
▁प्रयोग	-1458
ोत्	-1459
▁कहाँ	-1460
▁संसार	-1461
▁यात्रा	-1462
ंदर	-1463
▁सार	-1464
यु	-1465
दिर	-1466
▁मृत्य	-1467
▁यू	-1468
▁वी	-1469
▁गिर	-1470
मार्ग	-1471
▁उपस्थित	-1472
▁स्वास्थ्य	-1473
गो	-1474
ेश्व	-1475
▁कार्यं	-1476
ण्डल	-1477
▁हृद	-1478
▁दूध	-1479
कृष्ण	-1480
▁परिय	-1481
▁राष्ट्रपति	-1482
00	-1483
दिक	-1484
ुक	-1485
▁फिल्म	-1486
दिन	-1487
▁तव	-1488
▁पित	-1489
▁सबसे	-1490
▁तर्हि	-1491
▁सदस्य	-1492
▁मैंने	-1493
स्ट	-1494
▁दिव	-1495
▁भूमि	-1496
▁सुखवि	-1497
ज्य	-1498
तस्य	-1499
▁शक्	-1500
▁हिम	-1501
विश्व	-1502
▁नियुक्त	-1503
▁करोड़	-1504
▁द्वित	-1505
ेः	-1506
नाथ	-1507
ानुसार	-1508
▁पुलिस	-1509
▁नई	-1510
बद्ध	-1511
▁शत्र	-1512
पर्यन्तं	-1513
▁रस	-1514
्याग	-1515
▁अयोध्या	-1516
▁कुर्वन्ति	-1517
न्थ	-1518
ाया	-1519
▁दल	-1520
▁भाव	-1521
▁दक्षिण	-1522
ेभ्यः	-1523
▁द्वि	-1524
▁धारण	-1525
ब्र	-1526
र्ट	-1527
कर्त	-1528
त्री	-1529
ष्टा	-1530
▁सम्मान	-1531
▁लगा	-1532
▁साह	-1533
▁चे	-1534
▁जिन	-1535
ष्यामि	-1536
शन	-1537
षः	-1538
ित्व	-1539
▁श्रेष्ठ	-1540
दु	-1541
▁ग्राम	-1542
▁ध्यान	-1543
▁करेंगे	-1544
्वी	-1545
क्य	-1546
▁खाद	-1547
एं	-1548
▁आपके	-1549
▁यत्र	-1550
िरूप	-1551
▁तमे	-1552
▁प्रण	-1553
▁वर्ण	-1554
ूम	-1555
ोः	-1556
▁पति	-1557
▁चुनाव	-1558
यम्	-1559
▁बजे	-1560
▁कुत्र	-1561
दीप	-1562
▁अभी	-1563
::::::::	-1564
म्प	-1565
▁पत्नी	-1566
▁विन	-1567
रिक्त	-1568
▁उत्तम	-1569
▁चन्द्र	-1570
▁चौ	-1571
ेंगे	-1572
▁परं	-1573
▁माम	-1574
▁मंदिर	-1575
▁विद्व	-1576
▁विधाय	-1577
क्ष्य	-1578
▁रहता	-1579
▁वस्तु	-1580
▁अनन्तरं	-1581
▁शो	-1582
गण	-1583
तृ	-1584
दं	-1585
▁किम्	-1586
▁किये	-1587
▁सेना	-1588
▁प्रती	-1589
▁प्रधानमन्त्री	-1590
िकी	-1591
कारी	-1592
▁नष्ट	-1593
▁आयोजन	-1594
▁सूचना	-1595
▁अस्माकं	-1596
विश	-1597
ेन्द्र	-1598
▁इच्छा	-1599
▁सम्मेल	-1600
▁सुन्दर	-1601
▁प्रसिद्ध	-1602
▁तेज	-1603
ेंद्र	-1604
▁अहम्	-1605
▁सत्र	-1606
द्योग	-1607
▁मंत्र	-1608
तल	-1609
ंगल	-1610
ृष्ट	-1611
▁विविध	-1612
▁आचार्य	-1613
▁बुद्धि	-1614
▁स्त्री	-1615
▁दिनाङ्के	-1616
टक	-1617
ेप	-1618
्ल	-1619
नगर	-1620
▁सफल	-1621
ठाकुर	-1622
▁विदेश	-1623
भाषा	-1624
ालये	-1625
▁मोह	-1626
▁वायु	-1627
▁केवलं	-1628
▁प्रायः	-1629
▁इत्यनेन	-1630
▁भविष्यन्ति	-1631
▁पत	-1632
ृत्व	-1633
▁शोध	-1634
▁केंद	-1635
▁विना	-1636
▁शिक्षक	-1637
▁केंद्रीय	-1638
सह	-1639
ूं	-1640
न्दन	-1641
▁दान	-1642
ताम्	-1643
▁अर्जुन	-1644
▁कल्याण	-1645
▁प्रवेश	-1646
ृण	-1647
किन	-1648
▁होगी	-1649
▁सुनकर	-1650
▁उन्हें	-1651
▁स्थापित	-1652
खिल	-1653
▁प्रशिक्षण	-1654
▁ष	-1655
ानों	-1656
ियाँ	-1657
▁एता	-1658
▁नरे	-1659
▁पर्या	-1660
▁उद्घाटन	-1661
गृह	-1662
▁तं	-1663
पूर्वक	-1664
मल	-1665
▁ली	-1666
र्ति	-1667
▁समाज	-1668
▁अर्थात्	-1669
▁देखा	-1670
▁पश्च	-1671
▁इसलिए	-1672
▁क्रोध	-1673
ोत्त	-1674
▁याद	-1675
▁दिवस	-1676
▁हमारे	-1677
ायण	-1678
ध्यक्ष	-1679
▁प्रकट	-1680
ँच	-1681
ूर	-1682
नाय	-1683
▁आने	-1684
▁आया	-1685
ड्	-1686
कर्म	-1687
▁संच	-1688
▁परिवार	-1689
▁कांग्रेस	-1690
▁शिम	-1691
▁स्वयं	-1692
▁निर्मा	-1693
▁परीक्षा	-1694
लेख	-1695
▁कदा	-1696
▁श्रीम	-1697
▁परिवर्त	-1698
▁ज्य	-1699
▁ददा	-1700
▁वार्त	-1701
▁प्रसार	-1702
परि	-1703
िणः	-1704
▁फर	-1705
ध्या	-1706
▁किम	-1707
▁आदेश	-1708
▁लेकिन	-1709
▁कठ	-1710
▁भूम	-1711
▁अध्ययन	-1712
बि	-1713
▁खु	-1714
▁हिन्द	-1715
▁भवन्ति	-1716
▁दृष्ट्वा	-1717
िकाः	-1718
▁किए	-1719
▁मध्ये	-1720
▁शुद्ध	-1721
कल	-1722
कल्प	-1723
ान्व	-1724
▁पाप	-1725
▁इदान	-1726
▁वित्त	-1727
▁विष्ण	-1728
▁हिमाचलप्रदेश	-1729
र्द	-1730
वन्	-1731
▁ता	-1732
ाह्मण	-1733
▁कैसे	-1734
▁अक्ष	-1735
▁अच्छा	-1736
▁तेषां	-1737
▁प्रदान	-1738
रो	-1739
भूत	-1740
▁आद	-1741
▁नदी	-1742
▁त्याग	-1743
▁प्रेम	-1744
▁शत्रु	-1745
▁अनुम	-1746
▁दिखा	-1747
▁मुनि	-1748
▁फरवरी	-1749
्मा	-1750
व्यव	-1751
श्वर	-1752
तृत्व	-1753
र्माण	-1754
▁प्रयास	-1755
▁ऑ	-1756
यन्ति	-1757
▁माल	-1758
▁वक्त	-1759
▁आकाश	-1760
▁जिले	-1761
▁क्रिय	-1762
योज	-1763
▁मही	-1764
▁संख्या	-1765
बंध	-1766
सरा	-1767
दिना	-1768
▁पार्	-1769
▁आनन्द	-1770
▁बालिका	-1771
बह	-1772
▁इं	-1773
▁एषा	-1774
▁जल्	-1775
▁पूछ	-1776
▁रवि	-1777
▁किन्तु	-1778
▁भय	-1779
णात्	-1780
▁पुष्प	-1781
▁रात्र	-1782
यते	-1783
ृद्ध	-1784
▁आगे	-1785
▁उपल	-1786
धिकार	-1787
▁पांच	-1788
▁रहते	-1789
▁महत्व	-1790
▁व्याप	-1791
▁स्वामी	-1792
हं	-1793
▁स्ट	-1794
▁प्रार	-1795
दास	-1796
र्च	-1797
त्ता	-1798
वर्ण	-1799
ितुं	-1800
▁अग्र	-1801
▁सुक्ख	-1802
टल	-1803
हो	-1804
▁त्य	-1805
राज्य	-1806
▁अतिथि	-1807
▁श्रुत	-1808
▁सैनिक	-1809
▁न्याया	-1810
्रा	-1811
त्ति	-1812
व्यम्	-1813
ितानि	-1814
▁उपयोग	-1815
्यकाणां	-1816
▁पृथ्वी	-1817
▁श्रीकृष्ण	-1818
िक्	-1819
▁मृत्यु	-1820
▁लक्ष्य	-1821
▁नरेंद्र	-1822
केश	-1823
्मी	-1824
▁कप	-1825
▁समीप	-1826
▁हृदय	-1827
▁आत्मा	-1828
▁प्रमुख	-1829
▁भु	-1830
▁लेख	-1831
▁कुरु	-1832
▁गृहे	-1833
▁ग्रह	-1834
▁प्रभ	-1835
▁भ्रम	-1836
▁हस्त	-1837
▁स्वच्छ	-1838
ऊँ	-1839
ैल	-1840
▁अश	-1841
▁भे	-1842
▁लेकर	-1843
▁छात्रों	-1844
▁परियोजना	-1845
▁राज्यस्य	-1846
दार	-1847
▁मृ	-1848
▁यः	-1849
ताया	-1850
यामि	-1851
▁एका	-1852
▁शहर	-1853
▁समझ	-1854
▁होना	-1855
▁शक्ति	-1856
ङ्ग्रेस	-1857
▁दुर	-1858
ेश्वर	-1859
▁इससे	-1860
▁कृतः	-1861
▁समूह	-1862
▁अधिकारी	-1863
ूट	-1864
जरा	-1865
ामः	-1866
▁जु	-1867
वित्र	-1868
▁गृही	-1869
▁प्रयत्	-1870
▁प्रदत्त	-1871
मन्त्रिणा	-1872
▁प्रस्तुत	-1873
वान	-1874
शील	-1875
ासु	-1876
▁कः	-1877
▁तद	-1878
▁विजय	-1879
▁ब्राह्मण	-1880
▁सर्वेषां	-1881
▁एस	-1882
▁ध्व	-1883
▁साल	-1884
▁मधुर	-1885
▁व्यवस्था	-1886
मं	-1887
▁बाहर	-1888
▁मुक्त	-1889
▁संयुक्त	-1890
▁कार्यालय	-1891
मानं	-1892
▁स्नान	-1893
▁राज्यसर्वकार	-1894
सः	-1895
▁लौ	-1896
न्द्रम	-1897
▁उक्तं	-1898
राष्ट्र	-1899
▁उद्योग	-1900
▁समुद्र	-1901
▁आम	-1902
वाला	-1903
बू	-1904
ोदय	-1905
▁कई	-1906
चित्	-1907
भूमि	-1908
▁क्रम	-1909
▁निष्	-1910
▁केन्द	-1911
▁निर्वा	-1912
▁करिष्यति	-1913
पथ	-1914
यन्	-1915
ाणी	-1916
▁ऐसे	-1917
▁भाई	-1918
स्यति	-1919
▁महारा	-1920
▁वर्षा	-1921
▁चिकित्स	-1922
नाम	-1923
ट्टी	-1924
▁चला	-1925
▁उनका	-1926
▁चाहता	-1927
▁निर्णय	-1928
▁नामक	-1929
▁पूजा	-1930
▁यस्य	-1931
हे	-1932
▁रे	-1933
ित्वा	-1934
▁मन्दिर	-1935
दृश	-1936
▁दुग्ध	-1937
▁आवश्यकता	-1938
ुष	-1939
▁पाद	-1940
▁कष्ट	-1941
▁गीता	-1942
▁जिला	-1943
▁पहुं	-1944
▁तुम्हारे	-1945
लः	-1946
द्वारा	-1947
हन	-1948
ाजिक	-1949
▁कमल	-1950
▁गति	-1951
▁परिण	-1952
नानि	-1953
व्यं	-1954
▁नार	-1955
जल	-1956
व्र	-1957
▁आए	-1958
▁वाद	-1959
▁सोम	-1960
▁अखिल	-1961
▁सन्द	-1962
▁समर्थ	-1963
यह	-1964
▁आई	-1965
▁चा	-1966
▁दस	-1967
▁तैय	-1968
▁नूतन	-1969
योगिता	-1970
बे	-1971
००	-1972
खंड	-1973
म्य	-1974
सम्ब	-1975
▁बोले	-1976
▁घोषणा	-1977
▁भवान्	-1978
णः	-1979
तन्त्र	-1980
▁ददाति	-1981
▁पाण्ड	-1982
▁प्रचार	-1983
▁द्वितीय	-1984
▁सुरक्षा	-1985
▁श्रीरामचन्द्र	-1986
िश	-1987
▁जै	-1988
▁अभवन्	-1989
▁तस्याः	-1990
▁अत्यन्त	-1991
▁ढ	-1992
▁तथ	-1993
▁गां	-1994
▁दोष	-1995
▁मया	-1996
▁नीति	-1997
▁वदति	-1998
▁विशि	-1999
▁नित्य	-2000
▁चिकित्सा	-2001
▁केन्द्रीय	-2002
रल	-2003
णीय	-2004
वाले	-2005
▁उल्	-2006
▁गोप	-2007
▁भोज	-2008
्यात्	-2009
▁वर्ग	-2010
▁व्यक्त	-2011
ीक	-2012
▁धी	-2013
र्धा	-2014
▁विप	-2015
▁अश्व	-2016
▁शिमला	-2017
▁अभिय	-2018
▁कर्ण	-2019
▁श्रम	-2020
यित्वा	-2021
▁विस्तार	-2022
मय	-2023
द्भ	-2024
सित	-2025
▁दौ	-2026
▁रथ	-2027
द्रा	-2028
▁एषः	-2029
▁विज	-2030
पुत्र	-2031
▁कक्षा	-2032
▁विज्ञान	-2033
तिक	-2034
▁बस	-2035
▁धाव	-2036
मात्र	-2037
▁उन्न	-2038
▁नेता	-2039
▁प्रतिश	-2040
▁सर्वत्र	-2041
▁सामाजिक	-2042
▁प्रस्ताव	-2043
इन	-2044
▁गौ	-2045
लिये	-2046
▁जलं	-2047
▁नियम	-2048
▁मानव	-2049
▁उद्घाट	-2050
▁प्रार्थ	-2051
▁वर	-2052
▁येन	-2053
▁हित	-2054
▁काले	-2055
मासस्य	-2056
▁संस्थान	-2057
सीय	-2058
▁उपा	-2059
▁गमि	-2060
▁बोला	-2061
▁अवश्य	-2062
▁पात्र	-2063
ानुसारं	-2064
▁नेतृत्व	-2065
पन	-2066
चने	-2067
▁तम	-2068
व्या	-2069
▁अमे	-2070
विद्य	-2071
▁पर्वत	-2072
▁स्कूल	-2073
निया	-2074
▁साहित्य	-2075
घु	-2076
स्मै	-2077
▁अमृत	-2078
▁पूरा	-2079
▁अवसरे	-2080
▁इत्यादि	-2081
केन	-2082
तुः	-2083
ाता	-2084
▁टी	-2085
ोऽपि	-2086
▁पिछ	-2087
▁संघ	-2088
▁हनु	-2089
कृतिक	-2090
स्थित	-2091
▁द्वार	-2092
▁समर्प	-2093
▁राज्ये	-2094
▁कुर्वन्	-2095
▁तस्मिन्	-2096
डा	-2097
हत	-2098
निय	-2099
▁अती	-2100
▁वान	-2101
▁रहने	-2102
▁अनुभव	-2103
▁आरम्भ	-2104
▁सहस्र	-2105
▁पूर्वं	-2106
▁संस्था	-2107
दश	-2108
तेन	-2109
यों	-2110
रों	-2111
▁सुविध	-2112
▁देशस्य	-2113
▁श्रद्ध	-2114
मिल	-2115
रीय	-2116
▁डा	-2117
▁दिख	-2118
विन्द	-2119
▁आश्र	-2120
▁वाणी	-2121
▁कोटिरूप	-2122
काम	-2123
परा	-2124
र्क	-2125
र्घ	-2126
ुति	-2127
▁शै	-2128
▁मना	-2129
निश्च	-2130
विष्ट	-2131
▁जाकर	-2132
▁वाहन	-2133
▁पवित्र	-2134
▁विष्णु	-2135
▁विश्वास	-2136
▁क्षेत्रों	-2137
▁20	-2138
▁नए	-2139
▁गौर	-2140
▁संर	-2141
▁सकते	-2142
्यकाणि	-2143
▁प्राप्	-2144
▁ब्रह्मा	-2145
▁पे	-2146
▁ऊपर	-2147
स्तान	-2148
▁काङ्ग्रेस	-2149
ितु	-2150
ेशा	-2151
▁डी	-2152
याम्	-2153
▁तद्	-2154
तायाः	-2155
▁किमपि	-2156
▁कृतवन्तः	-2157
धे	-2158
श्म	-2159
ांत	-2160
▁एकं	-2161
▁कथं	-2162
▁ताप	-2163
▁हरि	-2164
▁परिच	-2165
▁रहित	-2166
▁दर्शन	-2167
▁पुत्रः	-2168
शब्द	-2169
▁तृत	-2170
▁प्रत्येक	-2171
खी	-2172
▁२०	-2173
ूँगा	-2174
▁एकः	-2175
▁मास	-2176
▁सुबह	-2177
▁आरब्ध	-2178
▁उद्देश	-2179
▁विपक्ष	-2180
वं	-2181
चते	-2182
▁रम	-2183
▁उपदेश	-2184
न्द्रमो	-2185
▁श्	-2186
ालाप	-2187
▁कस्य	-2188
▁खिला	-2189
▁प्रश्न	-2190
▁सम्मेलन	-2191
गल	-2192
ंगा	-2193
यनं	-2194
मन्द	-2195
▁रात	-2196
▁देते	-2197
▁महान	-2198
▁सहित	-2199
▁निवास	-2200
▁प्रेष	-2201
▁महीने	-2202
▁पर्यटन	-2203
▁अतिरिक्त	-2204
न्व	-2205
ुत्	-2206
▁परा	-2207
▁अष्ट	-2208
▁नेत्र	-2209
▁हमेशा	-2210
▁इसलिये	-2211
लु	-2212
ोट	-2213
▁अत	-2214
त्मक	-2215
▁ठीक	-2216
▁देना	-2217
▁धन्य	-2218
▁महत्त्व	-2219
▁व्यवहार	-2220
▁पक	-2221
शक्त	-2222
ोक्त	-2223
▁तदन	-2224
▁वचन	-2225
▁हिं	-2226
▁वाता	-2227
▁पिछले	-2228
▁बड़े	-2229
▁जिससे	-2230
▁वैज्ञान	-2231
▁संस्कृति	-2232
ृति	-2233
▁उठ	-2234
▁सात	-2235
मस्ति	-2236
▁जल्दी	-2237
▁विशाल	-2238
रित	-2239
▁कब	-2240
करोत्	-2241
▁सम्य	-2242
▁तथापि	-2243
▁सामान्य	-2244
गुण	-2245
ङ्घ	-2246
चीन	-2247
जीव	-2248
▁एन	-2249
▁बज	-2250
सेना	-2251
▁लड़	-2252
पुरुष	-2253
▁भक्ति	-2254
लों	-2255
▁नाश	-2256
▁लाल	-2257
▁समस्त	-2258
▁सूत्र	-2259
▁प्रशासन	-2260
ैर	-2261
▁आँ	-2262
न्ती	-2263
▁अंत	-2264
▁कान	-2265
▁आयोग	-2266
▁पहली	-2267
▁ठाकुर	-2268
क्षेत्रे	-2269
▁कार्यशाला	-2270
:।	-2271
प्य	-2272
वर्ध	-2273
वेदन	-2274
▁सज्	-2275
क्षेप	-2276
▁जहाँ	-2277
▁रक्त	-2278
स्त्री	-2279
▁जानता	-2280
▁तिष्ठ	-2281
▁प्रचल	-2282
▁मूल्य	-2283
▁होंगे	-2284
▁वर्तमान	-2285
ज़	-2286
▁कद	-2287
ार्ज	-2288
▁घूम	-2289
विधान	-2290
▁उत्पाद	-2291
▁सर्वदा	-2292
▁स्थिति	-2293
▁प्रतिनि	-2294
▁नरेन्द्रमो	-2295
राः	-2296
▁शक	-2297
यात्	-2298
▁कित	-2299
विषये	-2300
▁भागं	-2301
▁मंगल	-2302
▁चंद्र	-2303
केन्द्र	-2304
▁छात्राः	-2305
▁विद्यार्थ	-2306
आर	-2307
वह	-2308
श्	-2309
ैक	-2310
पाठ	-2311
वाच	-2312
▁चु	-2313
लम्ब	-2314
▁अन्न	-2315
▁कृता	-2316
▁बड़ा	-2317
▁लगभग	-2318
▁भवेत्	-2319
▁डि	-2320
ोत्स	-2321
▁बाण	-2322
▁बड़ी	-2323
▁स्वीकार	-2324
▁पर्यावरण	-2325
▁चू	-2326
▁जीत	-2327
तवान्	-2328
▁पूरी	-2329
▁सज्ज	-2330
▁अस्मि	-2331
▁जातम्	-2332
▁जिसके	-2333
जः	-2334
ग्न	-2335
तिथ	-2336
ोधन	-2337
▁वच	-2338
स्वी	-2339
▁भरत	-2340
▁शिर	-2341
▁सिर	-2342
र्थिक	-2343
▁अंतर	-2344
▁बहिः	-2345
▁बिहार	-2346
▁ज्योति	-2347
िरे	-2348
न्ना	-2349
्याम	-2350
▁आयु	-2351
▁कृष	-2352
▁तैयार	-2353
▁आवश्यक	-2354
▁दृश्यते	-2355
▁कार्यक्रमस्य	-2356
जि	-2357
षां	-2358
▁तृ	-2359
क्षी	-2360
त्तर	-2361
वासी	-2362
▁संग	-2363
▁अप्र	-2364
▁समये	-2365
▁ईश्वर	-2366
▁यो	-2367
▁जगह	-2368
मुख्य	-2369
िरा	-2370
ेशन	-2371
▁चर	-2372
▁लाख	-2373
कानां	-2374
▁मूर्	-2375
▁कर्मचार	-2376
ँव	-2377
धर	-2378
लभ	-2379
▁5	-2380
सरी	-2381
▁औष	-2382
▁अपे	-2383
▁सचिव	-2384
▁संकल्प	-2385
ीव	-2386
दिव	-2387
्रो	-2388
तानि	-2389
▁पूज	-2390
▁व्र	-2391
▁सुश	-2392
▁समिति	-2393
▁उपलब्ध	-2394
▁विशिष्ट	-2395
राध	-2396
समा	-2397
▁आध	-2398
नेषु	-2399
सेवा	-2400
▁लगे	-2401
र्गतं	-2402
श्मीर	-2403
▁पाकि	-2404
▁प्रौ	-2405
▁युवा	-2406
▁अभ्यास	-2407
▁दर	-2408
रस्य	-2409
▁देह	-2410
ग्रीव	-2411
▁कहते	-2412
▁गृहं	-2413
▁घटना	-2414
▁जाएगी	-2415
ल्ला	-2416
▁शोक	-2417
▁अन्व	-2418
▁स्मरण	-2419
▁राष्ट्रिय	-2420
▁प्रतियोगिता	-2421
आई	-2422
फ्	-2423
मो	-2424
णम्	-2425
▁यश	-2426
▁जाय	-2427
▁नूत	-2428
रिष्ठ	-2429
▁आचार	-2430
▁चक्र	-2431
▁शिष्य	-2432
▁सामने	-2433
▁ग्रन्थ	-2434
टु	-2435
ामह	-2436
ऊँगा	-2437
लक्ष	-2438
▁खरी	-2439
▁संश	-2440
▁बन्ध	-2441
▁सायं	-2442
▁गत्वा	-2443
▁दिव्य	-2444
▁जनानां	-2445
जू	-2446
▁कू	-2447
गुरु	-2448
▁शिख	-2449
कर्ता	-2450
▁पढ़ा	-2451
▁शक्न	-2452
▁शीघ्रम	-2453
कीय	-2454
सेन	-2455
▁पौ	-2456
▁राघ	-2457
▁गुजरा	-2458
▁दत्तवान्	-2459
▁श्रुत्वा	-2460
ंसा	-2461
ग्ल	-2462
माः	-2463
ारः	-2464
▁घो	-2465
▁उचित	-2466
क्षात्	-2467
▁मार्च	-2468
▁सहयोग	-2469
▁इदानीं	-2470
▁लोकसभा	-2471
वै	-2472
▁रज	-2473
नगरे	-2474
यस्य	-2475
▁धनं	-2476
▁नैव	-2477
ितस्य	-2478
▁लेने	-2479
▁परिणाम	-2480
▁पुत्री	-2481
▁स्वस्य	-2482
▁आगच्छति	-2483
▁क्रियते	-2484
वाई	-2485
ारं	-2486
नाम्	-2487
भूषण	-2488
मण्ड	-2489
वीत्	-2490
▁बच्चे	-2491
▁संबोध	-2492
▁प्रत्या	-2493
▁वार्तालाप	-2494
शे	-2495
▁क्व	-2496
▁तहत	-2497
▁बृह	-2498
▁सत्	-2499
▁अग्रे	-2500
▁आश्रम	-2501
▁दुष्ट	-2502
▁स्वागत	-2503
व्यवस्था	-2504
िकः	-2505
ड़ों	-2506
र्जा	-2507
श्री	-2508
कृत्य	-2509
प्राप	-2510
▁अनेके	-2511
▁विरोध	-2512
▁शामिल	-2513
▁स्वर्ण	-2514
▁सुनिश्च	-2515
ौप	-2516
मूल	-2517
▁पश	-2518
विंश	-2519
ोर्ट	-2520
▁चढ़	-2521
▁बहन	-2522
दर्शन	-2523
▁अभिन	-2524
▁विकसित	-2525
▁स्वभाव	-2526
▁गच्छामि	-2527
कान	-2528
ष्टि	-2529
▁अवि	-2530
▁उठा	-2531
▁जम्	-2532
▁हाँ	-2533
▁शोभा	-2534
▁प्राप्य	-2535
▁वातावरण	-2536
▁प्रक्रिया	-2537
छे	-2538
▁4	-2539
र्ड	-2540
▁भि	-2541
▁उनकी	-2542
▁मण्ड	-2543
▁हर्ष	-2544
▁आर्थिक	-2545
▁स्वरूप	-2546
▁निर्धार	-2547
विश्वविद्यालय	-2548
फा	-2549
मत	-2550
र्फ	-2551
▁शे	-2552
▁कला	-2553
▁यान	-2554
▁दण्ड	-2555
▁नृत्य	-2556
▁अकरोत्	-2557
▁समाचार	-2558
▁प्रतिदि	-2559
▁शीघ्रमेव	-2560
िते	-2561
करणं	-2562
▁अतीव	-2563
▁प्रय	-2564
▁आक्रम	-2565
च्चित्र	-2566
श्रेष्ठ	-2567
▁प्रमाण	-2568
▁स्पष्ट	-2569
ल्य	-2570
▁मर	-2571
भ्यां	-2572
▁गाँव	-2573
▁सकती	-2574
▁सुना	-2575
▁3	-2576
तीय	-2577
िकं	-2578
ेशः	-2579
▁धो	-2580
▁निवस	-2581
▁पालन	-2582
▁करेगा	-2583
▁दीर्घ	-2584
▁शुक्र	-2585
▁वरिष्ठ	-2586
▁अधिकारियों	-2587
▁महत्वपूर्ण	-2588
एम	-2589
तक	-2590
काद	-2591
▁कं	-2592
▁शू	-2593
कृते	-2594
चक्र	-2595
िकां	-2596
▁जगत्	-2597
▁सीमा	-2598
▁ज्ञात	-2599
▁सरस्व	-2600
न्होंने	-2601
▁सम्बोध	-2602
▁स्वर्ग	-2603
विभागस्य	-2604
▁प्रदर्शन	-2605
▁सुखविंदर	-2606
▁प्रधानमन्त्रिणा	-2607
दति	-2608
शाल	-2609
▁सत	-2610
कारः	-2611
▁भोग	-2612
बुद्ध	-2613
▁दिने	-2614
कुमारः	-2615
माध्यम	-2616
स्मात्	-2617
ितवन्तः	-2618
▁इतिहास	-2619
▁सुविधा	-2620
कार्यक्रम	-2621
▁सुखविन्दर	-2622
▁महाविद्यालय	-2623
दः	-2624
वाः	-2625
ैंड	-2626
▁पहु	-2627
▁पाल	-2628
▁रिप	-2629
क्रीड	-2630
सिंहः	-2631
▁माया	-2632
▁दिनों	-2633
▁निदेश	-2634
▁भूमिका	-2635
▁कारणात्	-2636
▁धन्यवाद	-2637
िणी	-2638
ेति	-2639
▁डर	-2640
▁पट	-2641
▁लि	-2642
▁नाट	-2643
▁आपका	-2644
▁आह्व	-2645
▁देती	-2646
▁पुराण	-2647
▁वैदिक	-2648
▁इसीलिए	-2649
▁व्याख्य	-2650
▁उद्देश्य	-2651
डे	-2652
▁५	-2653
कला	-2654
ण्ठ	-2655
ध्व	-2656
महा	-2657
▁आठ	-2658
▁जाओ	-2659
▁थीं	-2660
▁क्षण	-2661
▁ग्रहण	-2662
▁बोलता	-2663
▁विधेय	-2664
▁प्रतिदिन	-2665
तिम	-2666
रेण	-2667
वें	-2668
सेव	-2669
▁अर	-2670
धर्म	-2671
भारत	-2672
▁फूल	-2673
▁क्री	-2674
▁बैठक	-2675
सिंहसु	-2676
▁बनाने	-2677
▁शक्यते	-2678
▁किमर्थं	-2679
▁संबोधित	-2680
▁शिक्षकों	-2681
ंख	-2682
अप	-2683
बाद	-2684
शास	-2685
▁विह	-2686
च्छत्	-2687
ितवती	-2688
▁उपरि	-2689
▁जातः	-2690
▁साधु	-2691
▁अन्ति	-2692
▁स्थिर	-2693
▁उत्साह	-2694
▁सहायता	-2695
▁उत्तराखंड	-2696
▁वैज्ञानिक	-2697
▁३	-2698
ताप	-2699
हति	-2700
▁कॉ	-2701
▁अना	-2702
▁गीत	-2703
▁तथैव	-2704
▁नागर	-2705
▁महान्	-2706
▁स्त्र	-2707
▁समृद्ध	-2708
▁अध्यक्षता	-2709
लाह	-2710
्वल	-2711
▁नै	-2712
णस्य	-2713
स्पर	-2714
ाप्र	-2715
ीयते	-2716
▁अयं	-2717
▁मेघ	-2718
शर्मा	-2719
▁अनेन	-2720
▁पाँच	-2721
▁एतस्य	-2722
▁करणीय	-2723
▁प्राचीन	-2724
▁स्थापना	-2725
▁इव	-2726
▁तू	-2727
▁पो	-2728
▁शनि	-2729
वन्ति	-2730
▁आग्रह	-2731
▁किञ्च	-2732
▁जानते	-2733
▁भोजनं	-2734
▁वाक्य	-2735
▁सर्वं	-2736
गरं	-2737
▁वो	-2738
कर्ष	-2739
तुम्	-2740
▁भूत	-2741
▁सन्	-2742
▁सूच	-2743
क्षित	-2744
▁अम्ब	-2745
▁दूसरा	-2746
▁विवाह	-2747
▁शिक्षण	-2748
▁चलच्चित्र	-2749
::::::::::::::::	-2750
कां	-2751
▁ऋष	-2752
ोभित	-2753
▁शरण	-2754
▁आरोप	-2755
▁सन्त	-2756
▁जम्मू	-2757
▁प्रदा	-2758
▁इत्यत्र	-2759
▁देवताओं	-2760
▁व्याकरण	-2761
:,	-2762
ियम	-2763
्ये	-2764
पतिः	-2765
▁भवन	-2766
च्छति	-2767
▁आधुन	-2768
▁केरल	-2769
▁प्री	-2770
मन्दिर	-2771
▁निकाल	-2772
▁भगवान	-2773
सिंहसुक्ख	-2774
▁प्रार्थना	-2775
करी	-2776
तुर	-2777
थमिक	-2778
▁कति	-2779
▁अल्प	-2780
▁गन्त	-2781
▁परिस	-2782
▁उत्सव	-2783
▁देखता	-2784
▁देखते	-2785
▁न्याय	-2786
▁यात्र	-2787
स्कृतिक	-2788
▁अध्याप	-2789
मिक	-2790
▁मल	-2791
सत्र	-2792
▁दौर	-2793
▁निः	-2794
▁सरल	-2795
▁कुशल	-2796
▁भवतः	-2797
▁मिला	-2798
▁वन्द	-2799
▁दुर्य	-2800
▁वृत्त	-2801
▁विधायक	-2802
▁प्रशंसा	-2803
▁सम्बन्ध	-2804
▁कार्यक्रमे	-2805
गति	-2806
▁रू	-2807
▁शर	-2808
ङ्गी	-2809
भक्त	-2810
ष्ठा	-2811
िणां	-2812
▁रत्	-2813
▁केचन	-2814
▁उद्यान	-2815
▁प्रोक्त	-2816
▁तुम्हारा	-2817
▁मंत्रालय	-2818
▁साक्षात्	-2819
▁अन्तर्गतं	-2820
▁प्राप्तवान्	-2821
▁श्रीरामचन्द्रजी	-2822
ीस	-2823
ून	-2824
पित	-2825
हीन	-2826
ह्न	-2827
▁उभ	-2828
दिने	-2829
दिवस	-2830
▁तेल	-2831
काणां	-2832
▁उसको	-2833
▁निरी	-2834
▁पठति	-2835
▁कन्या	-2836
▁मामले	-2837
▁उल्लेख	-2838
▁प्रवृत्त	-2839
ँस	-2840
▁नित	-2841
ग्राम	-2842
▁छोड़कर	-2843
▁भविष्य	-2844
▁वर्षों	-2845
च्य	-2846
▁रोह	-2847
यंत्र	-2848
्यामि	-2849
▁चित्त	-2850
▁शक्नु	-2851
▁प्रकृति	-2852
▁संस्कार	-2853
वृ	-2854
ह्	-2855
जाब	-2856
▁आल	-2857
येत्	-2858
▁अलग	-2859
▁कुर	-2860
▁पंच	-2861
▁वही	-2862
ितुम्	-2863
▁आपको	-2864
▁जैसा	-2865
▁अच्छी	-2866
▁रात्रौ	-2867
खे	-2868
ताल	-2869
िके	-2870
▁थो	-2871
▁सच	-2872
▁अंग	-2873
▁आम्	-2874
▁चयन	-2875
भावना	-2876
▁भाषण	-2877
िकायाः	-2878
▁अन्तर	-2879
▁अपितु	-2880
▁निर्व	-2881
▁त्यक्त	-2882
▁प्रयत्न	-2883
▁सरस्वती	-2884
रस	-2885
घ्र	-2886
▁इत	-2887
▁लं	-2888
ङ्गल	-2889
दानं	-2890
ांति	-2891
ारीख	-2892
▁आवा	-2893
▁पड़	-2894
क्रिय	-2895
▁देशे	-2896
▁निकल	-2897
▁विभा	-2898
▁स्ने	-2899
▁पुण्य	-2900
निर्माण	-2901
▁वार्ता	-2902
▁न्यायालय	-2903
▁प्रारम्भ	-2904
▁सम्प्रति	-2905
▁उत्तराखण्ड	-2906
ष्म	-2907
▁अज	-2908
मिति	-2909
▁दया	-2910
▁बुध	-2911
शक्ति	-2912
प्रकाश	-2913
▁दौरान	-2914
▁रास्ते	-2915
▁विषयों	-2916
▁स्यात्	-2917
▁वर्षस्य	-2918
करः	-2919
ल्क	-2920
▁मज	-2921
डिया	-2922
सचिव	-2923
्यम्	-2924
▁ऐसी	-2925
▁क्ल	-2926
▁नाय	-2927
▁इसका	-2928
▁उससे	-2929
श्चर्य	-2930
▁तारीख	-2931
▁तृतीय	-2932
▁प्रकरण	-2933
▁संचालन	-2934
▁हनुमान	-2935
पे	-2936
षे	-2937
▁कव	-2938
▁छु	-2939
न्दु	-2940
भाषण	-2941
र्तन	-2942
वारं	-2943
▁नाग	-2944
▁पूर	-2945
▁चेत्	-2946
▁जारी	-2947
▁पीछे	-2948
▁स्था	-2949
स्वरूप	-2950
▁न्यून	-2951
▁अभियान	-2952
रथ	-2953
ौल	-2954
चाल	-2955
विर	-2956
वन्त	-2957
▁असम	-2958
द्वार	-2959
▁अनुस	-2960
▁द्वौ	-2961
न्याया	-2962
▁ऊर्जा	-2963
▁राजेश	-2964
▁समस्या	-2965
▁प्रतिदिनं	-2966
▁४	-2967
ांग	-2968
िंश	-2969
▁वस	-2970
▁नया	-2971
▁नास	-2972
▁भाष	-2973
▁बर्फ	-2974
▁संजय	-2975
▁देवता	-2976
▁राजनी	-2977
▁सर्वकारेण	-2978
हम्	-2979
ूनि	-2980
जिये	-2981
▁रंग	-2982
स्थाप	-2983
▁आपकी	-2984
▁कहता	-2985
▁खरीद	-2986
▁गृहा	-2987
▁देवी	-2988
▁परमा	-2989
▁रामः	-2990
▁वहां	-2991
▁श्लोक	-2992
▁आयोजनं	-2993
▁भार्या	-2994
▁सम्यक्	-2995
हरा	-2996
ामा	-2997
▁ओह	-2998
▁मद	-2999
▁आते	-3000
▁मंड	-3001
▁राह	-3002
त्याः	-3003
स्त्व	-3004
▁पण्ड	-3005
▁लेता	-3006
▁आज्ञा	-3007
▁क्षमा	-3008
▁भारतं	-3009
▁मूर्ख	-3010
▁प्रणाम	-3011
▁मार्गे	-3012
▁तुम्हें	-3013
▁प्रतिभा	-3014
▁राज्यों	-3015
▁संस्कृतभाषा	-3016
ियो	-3017
ङ्का	-3018
मारी	-3019
ैर्य	-3020
▁पशु	-3021
▁पिब	-3022
चिन्त	-3023
▁करनी	-3024
▁निवेश	-3025
▁पदार्थ	-3026
▁भूत्वा	-3027
▁सप्ताह	-3028
द्वि	-3029
ध्ये	-3030
न्नं	-3031
▁अरे	-3032
▁आता	-3033
▁लघु	-3034
▁अभ्य	-3035
▁कश्च	-3036
▁जनपद	-3037
▁धीरे	-3038
▁द्रौप	-3039
▁राजीव	-3040
▁विक्र	-3041
ऽस्मिन्	-3042
▁अन्वेष	-3043
▁नमस्कार	-3044
▁महत्त्वपूर्ण	-3045
▁कोटिरूप्यकाणां	-3046
ुम	-3047
कोट	-3048
दयः	-3049
लाल	-3050
▁खुश	-3051
▁शपथ	-3052
▁हास	-3053
▁उपाय	-3054
▁कहकर	-3055
▁आश्रय	-3056
▁वास्त	-3057
▁संबंध	-3058
▁बच्चों	-3059
▁संस्कृतं	-3060
▁प्रतिज्ञा	-3061
शो	-3062
भीर	-3063
ीया	-3064
▁टीम	-3065
▁पेट	-3066
श्विक	-3067
सहस्र	-3068
यात्रा	-3069
▁गुणों	-3070
द्योगिकी	-3071
▁कर्तव्य	-3072
▁सुशोभित	-3073
▁चलचित्रस्य	-3074
▁सांस्कृतिक	-3075
कौ	-3076
जली	-3077
कानि	-3078
कृता	-3079
ुनाथ	-3080
▁आकर	-3081
▁चले	-3082
▁लाह	-3083
▁सड़	-3084
क्षणं	-3085
ज्ञाप	-3086
प्राप्त	-3087
▁निश्चय	-3088
▁स्थानों	-3089
मन्त्रिणः	-3090
▁राज्यपाल	-3091
्ण	-3092
कैः	-3093
धीन	-3094
वीं	-3095
ाधिक	-3096
्याय	-3097
▁शिश	-3098
▁सोच	-3099
▁आधुनिक	-3100
▁दृष्टि	-3101
▁द्रष्ट	-3102
▁नागरिक	-3103
▁वृद्धि	-3104
▁तदनन्तरं	-3105
▁प्राथमिक	-3106
रत	-3107
सल	-3108
परी	-3109
मासे	-3110
िलास	-3111
▁रिक	-3112
▁राघव	-3113
▁अंतिम	-3114
▁करोमि	-3115
▁तीनों	-3116
▁त्वया	-3117
▁देखने	-3118
▁विस्म	-3119
▁वैद्य	-3120
▁अस्याः	-3121
▁निरन्तर	-3122
▁शक्नोति	-3123
▁स्वीकृत	-3124
▁एकस्मिन्	-3125
▁राजस्थान	-3126
▁नरेन्द्रमोदी	-3127
रणं	-3128
▁202	-3129
▁फ्र	-3130
▁भीम	-3131
▁हूं	-3132
मुक्त	-3133
विकास	-3134
▁रोचते	-3135
▁हिमाच	-3136
विज्ञान	-3137
▁अनुमोद	-3138
▁उपस्थिताः	-3139
एक	-3140
जों	-3141
ान्ति	-3142
▁प्रथ	-3143
▁संसद	-3144
▁कोऽपि	-3145
▁पश्चिम	-3146
▁पार्टी	-3147
▁बालकाः	-3148
▁सुग्रीव	-3149
▁कार्यान्व	-3150
ठे	-3151
र्न	-3152
ुराग	-3153
▁कथा	-3154
त्साह	-3155
▁अङ्ग	-3156
▁उद्ध	-3157
▁वैसे	-3158
▁चारों	-3159
▁पर्यट	-3160
▁प्राव	-3161
▁सर्वो	-3162
▁इच्छति	-3163
▁रिपोर्ट	-3164
ंत	-3165
पः	-3166
क्स	-3167
गढ़	-3168
साध	-3169
▁..	-3170
ष्ठी	-3171
ायते	-3172
िदास	-3173
▁ऋतु	-3174
▁कृप	-3175
▁ज्व	-3176
▁बदल	-3177
▁मृग	-3178
▁वित	-3179
▁शाह	-3180
▁कठिन	-3181
▁सार्	-3182
▁बिजली	-3183
▁महोदय	-3184
ानन्तरं	-3185
▁समुदाय	-3186
▁आश्चर्य	-3187
ठन	-3188
सभ	-3189
क्ल	-3190
▁तः	-3191
▁नृ	-3192
नात्	-3193
▁केश	-3194
▁मनः	-3195
▁अस्प	-3196
▁खाता	-3197
▁बेटा	-3198
▁सञ्च	-3199
▁विश्र	-3200
▁समन्व	-3201
फे	-3202
▁फै	-3203
▁रण	-3204
परिव	-3205
ल्लू	-3206
▁जाल	-3207
▁जागर	-3208
▁दिशा	-3209
▁पहला	-3210
▁पृष्ठ	-3211
▁भारते	-3212
▁निर्धन	-3213
▁शस्त्र	-3214
▁द्रौपदी	-3215
सिंहसुक्खुः	-3216
बाल	-3217
▁जे	-3218
जनपद	-3219
त्ते	-3220
ायाः	-3221
▁अटल	-3222
▁अपर	-3223
▁पञ्	-3224
▁चत्व	-3225
▁नवीन	-3226
▁अद्या	-3227
▁अर्जु	-3228
▁तस्मै	-3229
▁सज्जन	-3230
▁अखिलेश	-3231
▁दुग्धं	-3232
▁हिन्दी	-3233
▁महिलाओं	-3234
▁रेलमार्ग	-3235
▁शिक्षिका	-3236
सो	-3237
▁भौ	-3238
▁रघ	-3239
त्रं	-3240
समित	-3241
ियार	-3242
▁स्क	-3243
ोत्सव	-3244
▁पैदा	-3245
▁रोगी	-3246
▁स्थग	-3247
न्त्री	-3248
▁आगामि	-3249
यिष्यति	-3250
▁दुनिया	-3251
▁पश्यति	-3252
▁प्रशंस	-3253
▁पार्श्व	-3254
▁यस्मिन्	-3255
▁धर्मशाला	-3256
▁मन्त्रिम	-3257
गद	-3258
पं	-3259
सन	-3260
पान	-3261
वीर	-3262
▁एम	-3263
▁घट	-3264
▁छह	-3265
▁बद	-3266
▁वध	-3267
जनाः	-3268
समये	-3269
▁भेज	-3270
▁याच	-3271
▁सना	-3272
▁समी	-3273
योजना	-3274
ष्यसि	-3275
▁दौड़	-3276
▁विवे	-3277
▁शक्त	-3278
▁हमें	-3279
स्थानं	-3280
▁संग्रह	-3281
▁निर्णयः	-3282
▁सर्वान्	-3283
▁प्रतिनिध	-3284
मनु	-3285
ामु	-3286
▁अला	-3287
▁ऋषि	-3288
▁निम	-3289
मित्र	-3290
▁आचरण	-3291
▁भवती	-3292
▁शिखर	-3293
▁ह्यः	-3294
▁गुजरात	-3295
▁परस्पर	-3296
▁लक्ष्मी	-3297
कन	-3298
▁6	-3299
माल	-3300
▁अद	-3301
▁नो	-3302
घटना	-3303
म्बर	-3304
▁औषध	-3305
▁चाल	-3306
▁पसं	-3307
शिष्ट	-3308
्याम्	-3309
▁आगमि	-3310
▁बुला	-3311
▁स्तर	-3312
▁तीव्र	-3313
▁दातुं	-3314
▁दिखाई	-3315
▁सार्व	-3316
स्पर्धा	-3317
▁छात्रा	-3318
▁दिवसीय	-3319
▁प्रक्ष	-3320
▁व्यापार	-3321
इल	-3322
ठी	-3323
ुण	-3324
दुर	-3325
ियन	-3326
▁''	-3327
▁ची	-3328
ङ्गा	-3329
भवति	-3330
िभिः	-3331
िलों	-3332
▁तिर	-3333
▁सूर	-3334
▁२०२	-3335
ध्याप	-3336
▁अभाव	-3337
▁कोटि	-3338
▁नीचे	-3339
▁मातृ	-3340
▁श्वः	-3341
▁साधन	-3342
चिकित्	-3343
संस्था	-3344
▁गुप्त	-3345
▁जिनके	-3346
▁निवार	-3347
▁श्याम	-3348
▁अमेरिक	-3349
▁कार्या	-3350
▁चिन्ता	-3351
▁पाण्डव	-3352
▁सम्बद्ध	-3353
गन	-3354
भु	-3355
मित	-3356
राग	-3357
ांस	-3358
▁फ़	-3359
धानं	-3360
मानः	-3361
▁जला	-3362
कादमी	-3363
वादने	-3364
▁गौरव	-3365
▁जनता	-3366
▁माला	-3367
▁स्मर	-3368
▁पुरात	-3369
▁बालकः	-3370
▁भगवन्	-3371
▁संवाद	-3372
▁सुक्खू	-3373
▁पर्यन्तं	-3374
▁मनुष्यों	-3375
▁पाकिस्तान	-3376
पल	-3377
माद	-3378
▁यथ	-3379
ोदयः	-3380
▁रोक	-3381
च्यते	-3382
▁आर्य	-3383
▁कौशल	-3384
▁आदर्श	-3385
द्योगिक	-3386
▁तापमान	-3387
▁सम्पन्न	-3388
▁प्रकाशित	-3389
▁विद्युत्	-3390
▁सर्वकारः	-3391
चौ	-3392
बई	-3393
ोत	-3394
ोन	-3395
मति	-3396
वाय	-3397
ानः	-3398
ोगे	-3399
▁अफ	-3400
▁जह	-3401
▁शत	-3402
क्ता	-3403
णाम्	-3404
धानी	-3405
संबर	-3406
ूर्त	-3407
▁ट्र	-3408
▁बने	-3409
▁सौर	-3410
▁अनुर	-3411
विद्या	-3412
स्थाने	-3413
▁चाहते	-3414
▁जयराम	-3415
▁नाट्य	-3416
▁पढ़ता	-3417
▁वालों	-3418
▁सूचित	-3419
▁स्नेह	-3420
▁क्रिया	-3421
▁दिसंबर	-3422
▁स्वस्थ	-3423
▁वैश्विक	-3424
▁व्याख्यान	-3425
दो	-3426
देह	-3427
पात	-3428
िको	-3429
िणा	-3430
प्रस	-3431
ैन्य	-3432
▁चीन	-3433
▁दोप	-3434
▁पता	-3435
▁लौट	-3436
ष्यते	-3437
▁कम्प	-3438
▁कहीं	-3439
▁बोली	-3440
▁मल्ल	-3441
▁लम्ब	-3442
▁सुदृ	-3443
▁देशों	-3444
▁अपेक्षा	-3445
▁स्थानीय	-3446
▁प्रतिष्ठ	-3447
▁सर्वोच्च	-3448
गार	-3449
घोष	-3450
द्म	-3451
कारा	-3452
वर्ग	-3453
ान्ध	-3454
▁आँख	-3455
▁हँस	-3456
▁हिर	-3457
तिहास	-3458
प्रिय	-3459
ानन्द	-3460
▁अमित	-3461
▁जाएं	-3462
▁देकर	-3463
▁मनोज	-3464
▁विनय	-3465
▁अगस्त	-3466
▁दलस्य	-3467
▁दूसरी	-3468
▁प्रभा	-3469
▁प्राप्तुं	-3470
नो	-3471
शय	-3472
बार	-3473
र्स	-3474
▁10	-3475
▁गर	-3476
▁टे	-3477
▁अतिथ	-3478
▁देखो	-3479
▁वस्त	-3480
▁वैसा	-3481
▁स्ना	-3482
न्तरम्	-3483
ार्थम्	-3484
▁क्रिक	-3485
▁जानने	-3486
▁कुलपति	-3487
▁प्रसाद	-3488
▁सुवर्ण	-3489
▁परिवर्तन	-3490
▁शास्त्री	-3491
▁हिमाचलस्य	-3492
),	-3493
जु	-3494
करा	-3495
मुप	-3496
बारी	-3497
शाली	-3498
▁काट	-3499
▁खोज	-3500
▁यतः	-3501
▁कृषि	-3502
▁जाति	-3503
▁रचना	-3504
नगरस्य	-3505
▁अच्छे	-3506
▁अवकाश	-3507
▁कदापि	-3508
▁हासिल	-3509
▁दिसम्ब	-3510
▁प्राप्ति	-3511
पत	-3512
क्ट	-3513
िमा	-3514
ोलन	-3515
▁ऋण	-3516
▁छि	-3517
▁बॉ	-3518
कर्ण	-3519
मार्	-3520
सन्द	-3521
ीकरण	-3522
▁दाद	-3523
▁शेष	-3524
▁पूछा	-3525
▁मजबू	-3526
▁योगी	-3527
▁अन्तः	-3528
▁बताया	-3529
▁बाजार	-3530
ध्यक्षः	-3531
▁एतादृश	-3532
▁इच्छामि	-3533
▁निश्चित	-3534
▁प्रत्ये	-3535
▁विरुद्ध	-3536
सर्वकारेण	-3537
सर्वकारस्य	-3538
▁सर्वेभ्यः	-3539
▁विद्यालयस्य	-3540
ेंट	-3541
चारी	-3542
पश्च	-3543
सरों	-3544
ूपेण	-3545
▁तुल	-3546
▁संत	-3547
क्षां	-3548
त्वेन	-3549
मारोह	-3550
ीरपुर	-3551
▁कल्प	-3552
▁पूरे	-3553
▁रहती	-3554
▁हानि	-3555
ार्मिक	-3556
▁सहायक	-3557
▁नारायण	-3558
▁श्रमिक	-3559
▁महाराष्ट्र	-3560
षेक	-3561
▁एल	-3562
तारः	-3563
▁आती	-3564
▁किन	-3565
▁जाग	-3566
▁भयं	-3567
▁मृत	-3568
▁अब्र	-3569
▁ग्री	-3570
▁ताला	-3571
▁निरा	-3572
▁पसंद	-3573
▁प्रज	-3574
▁बढ़ा	-3575
▁भक्ष	-3576
▁रूपी	-3577
▁आरभ्य	-3578
▁तीर्थ	-3579
▁पढ़ने	-3580
▁परिचय	-3581
▁संयोज	-3582
▁सम्मिल	-3583
▁स्मृति	-3584
उन्होंने	-3585
▁प्रबन्ध	-3586
दर	-3587
ऽऽ	-3588
ुव	-3589
कास	-3590
तुल	-3591
ल्स	-3592
साम	-3593
ितो	-3594
▁तट	-3595
प्रे	-3596
माना	-3597
र्था	-3598
▁बता	-3599
ाणाम्	-3600
▁ध्वज	-3601
▁वहीं	-3602
▁विधि	-3603
▁सबको	-3604
▁हाथी	-3605
तवन्तः	-3606
▁गांधी	-3607
▁तमस्य	-3608
▁दोपहर	-3609
िलासपुर	-3610
▁अनुराग	-3611
▁स्थाने	-3612
▁कार्यों	-3613
▁कालिदास	-3614
▁इत्युक्त	-3615
▁सर्वकारस्य	-3616
पण	-3617
समु	-3618
▁तल	-3619
गन्ध	-3620
वाली	-3621
ूर्ण	-3622
▁गुर	-3623
▁तिल	-3624
▁फें	-3625
रिद्र	-3626
▁गर्भ	-3627
▁पराज	-3628
▁परिष	-3629
▁भव्य	-3630
▁श्रृ	-3631
▁अलावा	-3632
▁आभूषण	-3633
▁बोलते	-3634
▁मुख्या	-3635
▁परिश्रम	-3636
▁श्रद्धा	-3637
▁निर्वाचन	-3638
त्थ	-3639
प्न	-3640
ड्डी	-3641
त्वं	-3642
देशे	-3643
नेता	-3644
सम्प	-3645
दिष्ट	-3646
▁अन्ध	-3647
प्रसार	-3648
▁अधिकं	-3649
▁अन्ये	-3650
▁इदानी	-3651
▁पृथिव	-3652
▁मजबूत	-3653
▁सन्तु	-3654
▁सांसद	-3655
▁सार्ध	-3656
वर्षस्य	-3657
▁चतुर्थ	-3658
▁जिसमें	-3659
▁योगदान	-3660
▁स्पर्धा	-3661
रव	-3662
▁[	-3663
चनं	-3664
नेट	-3665
पीठ	-3666
▁पथ	-3667
पञ्च	-3668
ब्रह	-3669
ामीण	-3670
▁आशा	-3671
▁भेद	-3672
▁अनुप	-3673
▁दरवा	-3674
▁बनाए	-3675
▁वत्स	-3676
▁हिस्	-3677
▁त्वम्	-3678
▁शीर्ष	-3679
▁हमारा	-3680
▁एतेषां	-3681
▁तत्त्व	-3682
▁पितामह	-3683
▁प्रथमं	-3684
▁हजारों	-3685
▁पुस्तकं	-3686
▁राज्यसभा	-3687
▁कार्यकर्त	-3688
ेह	-3689
तोऽ	-3690
लाई	-3691
ीयं	-3692
▁कट	-3693
▁दद	-3694
▁शन	-3695
▁शृ	-3696
▁शौ	-3697
▁हृ	-3698
न्ने	-3699
ियां	-3700
▁आतं	-3701
▁कवि	-3702
▁खलु	-3703
▁जित	-3704
▁बल्	-3705
▁भूल	-3706
▁मधु	-3707
▁शीत	-3708
▁शृण	-3709
▁कॉले	-3710
▁गन्ध	-3711
▁धनुष	-3712
▁शासन	-3713
▁स्वर	-3714
▁खिलाफ	-3715
▁संचाल	-3716
▁कारणेन	-3717
▁क्रिकेट	-3718
▁हमीरपुर	-3719
▁प्रभावित	-3720
ंधन	-3721
मोह	-3722
याँ	-3723
▁घु	-3724
▁चम	-3725
▁शं	-3726
प्री	-3727
विषय	-3728
स्ता	-3729
िष्ठ	-3730
▁इदं	-3731
▁जगत	-3732
▁वेग	-3733
कुन्त	-3734
कुर्व	-3735
▁दशरथ	-3736
कश्मीर	-3737
प्रधान	-3738
सम्मेल	-3739
▁गृहम्	-3740
▁ग्रही	-3741
▁जिलों	-3742
▁जिसका	-3743
▁मोक्ष	-3744
▁सफलता	-3745
▁दरिद्र	-3746
▁अत्यधिक	-3747
▁पश्चात्	-3748
▁प्रचलति	-3749
▁प्रवर्त	-3750
▁प्रतिशतं	-3751
रुण	-3752
ायल	-3753
ारि	-3754
▁पच	-3755
वादी	-3756
हारी	-3757
▁सदन	-3758
वन्तौ	-3759
स्ट्र	-3760
▁दिये	-3761
▁लब्ध	-3762
▁तालाब	-3763
▁पार्थ	-3764
▁भगिनी	-3765
▁वर्णन	-3766
▁वार्ष	-3767
▁समापन	-3768
▁अनुमति	-3769
▁दूसरों	-3770
▁राजस्व	-3771
▁अध्यक्षः	-3772
▁दुर्घटना	-3773
▁राक्षसों	-3774
▁विद्यार्थियों	-3775
वत	-3776
िट	-3777
लंब	-3778
सों	-3779
क्षक	-3780
रिका	-3781
स्ती	-3782
ानगर	-3783
▁घृत	-3784
▁एतद्	-3785
▁खर्च	-3786
▁देहि	-3787
▁यद्य	-3788
▁रहना	-3789
▁ऐतिहास	-3790
▁क्रीडा	-3791
▁मीडिया	-3792
▁तिष्ठति	-3793
पट	-3794
▁7	-3795
नाड	-3796
संर	-3797
ादश	-3798
क्षि	-3799
▁अगर	-3800
▁इतः	-3801
▁इसे	-3802
▁मिथ	-3803
▁संस	-3804
रात्र	-3805
वर्धन	-3806
▁कांग	-3807
▁कैके	-3808
▁क्षम	-3809
▁तान्	-3810
▁आकर्ष	-3811
▁इनमें	-3812
▁कोर्ट	-3813
▁तीसरे	-3814
▁समग्र	-3815
▁जानाति	-3816
▁संघर्ष	-3817
▁अब्रवीत्	-3818
कथ	-3819
यू	-3820
▁फा	-3821
▁भो	-3822
क्षम	-3823
प्रभ	-3824
मुना	-3825
ष्णा	-3826
▁आर्	-3827
▁नीर	-3828
ालयेन	-3829
ित्वं	-3830
▁गुणव	-3831
▁बहवः	-3832
▁रत्न	-3833
▁रामल	-3834
रिक्तं	-3835
▁एकस्य	-3836
▁भावना	-3837
▁भ्रात	-3838
▁राहुल	-3839
▁सत्यं	-3840
▁उन्नति	-3841
▁निदेशक	-3842
▁निवृत्त	-3843
▁प्रौद्योगिकी	-3844
जं	-3845
जो	-3846
▁६	-3847
गतं	-3848
रेल	-3849
सां	-3850
▁नग	-3851
न्दा	-3852
प्रा	-3853
▁गयी	-3854
▁ठंड	-3855
▁तां	-3856
▁हंस	-3857
करोति	-3858
र्वेद	-3859
▁दृढ़	-3860
▁मारा	-3861
▁सङ्ग	-3862
▁सन्ध	-3863
▁पहुँच	-3864
▁पार्व	-3865
▁मिलता	-3866
▁अन्तिम	-3867
▁चिन्तन	-3868
▁शान्ति	-3869
▁प्रतिशत	-3870
विद्यालये	-3871
▁गच्छन्ति	-3872
▁माध्यमेन	-3873
आत	-3874
▁“	-3875
किल	-3876
गीत	-3877
िरी	-3878
▁आओ	-3879
द्वा	-3880
धारी	-3881
नानं	-3882
रात्	-3883
वाणी	-3884
स्थल	-3885
▁अजय	-3886
▁आनी	-3887
कालीन	-3888
द्भुत	-3889
▁खाते	-3890
▁जोशी	-3891
▁स्वय	-3892
देशस्य	-3893
शिक्षण	-3894
▁पहुंच	-3895
▁पाठ्य	-3896
▁बोलने	-3897
▁परिवहन	-3898
▁युद्धं	-3899
▁वर्धते	-3900
▁स्कूलों	-3901
▁दुर्योधन	-3902
▁निरन्तरं	-3903
▁प्राणियों	-3904
▁प्रोत्साह	-3905
चक	-3906
िसू	-3907
▁मछ	-3908
ब्धा	-3909
र्वि	-3910
ष्टः	-3911
ोंके	-3912
▁योज	-3913
▁विभ	-3914
▁शास	-3915
क्ष्म	-3916
▁काशी	-3917
▁जहां	-3918
▁बेटी	-3919
▁माना	-3920
▁यहां	-3921
▁सोने	-3922
धिकारी	-3923
▁इसमें	-3924
▁भिन्न	-3925
▁भ्रमण	-3926
▁राकेश	-3927
▁लक्षण	-3928
▁अस्यां	-3929
▁तत्रैव	-3930
▁महाराज	-3931
▁शुभकाम	-3932
▁अद्यापि	-3933
▁उपमुख्य	-3934
▁सर्वेषु	-3935
▁प्राप्नु	-3936
▁बिलासपुर	-3937
▁कुर्वन्तु	-3938
▁शक्नुवन्ति	-3939
ईस	-3940
खन	-3941
बु	-3942
सौ	-3943
काय	-3944
याम	-3945
येन	-3946
सुर	-3947
ायै	-3948
▁अट	-3949
दण्ड	-3950
मिदं	-3951
स्वा	-3952
▁आसन	-3953
▁डाल	-3954
▁डाॅ	-3955
▁देर	-3956
▁मनो	-3957
▁मेल	-3958
पत्रं	-3959
▁अज्ञ	-3960
▁आतंक	-3961
▁खाना	-3962
▁चलता	-3963
▁मारे	-3964
▁लिखा	-3965
▁हवाई	-3966
समारोह	-3967
िकायां	-3968
▁धैर्य	-3969
▁मुम्ब	-3970
ानिर्वा	-3971
▁गतवान्	-3972
▁इत्यादी	-3973
▁इत्यादयः	-3974
थी	-3975
ङ्ख	-3976
पत्	-3977
ांश	-3978
▁आं	-3979
क्षु	-3980
यानं	-3981
र्मू	-3982
र्षि	-3983
विधि	-3984
समूह	-3985
▁आरभ	-3986
▁ततो	-3987
▁विद	-3988
▁शोभ	-3989
▁संय	-3990
धिष्ठ	-3991
▁आपदा	-3992
▁नाम्	-3993
▁भारी	-3994
▁शिवा	-3995
प्रयोग	-3996
▁अपराध	-3997
▁करेगी	-3998
▁सत्ता	-3999
▁अंग्रे	-4000
▁बढ़ाने	-4001
▁रात्रि	-4002
▁करणीयम्	-4003
▁दिसम्बर	-4004
▁परमात्मा	-4005
▁मध्यप्रदेश	-4006
मद	-4007
वश	-4008
मां	-4009
लीव	-4010
स्फ	-4011
ह्य	-4012
▁यत	-4013
केषु	-4014
र्ना	-4015
हिता	-4016
ाक्ष	-4017
ार्ट	-4018
ीर्ण	-4019
▁अमर	-4020
▁आशी	-4021
▁नील	-4022
▁सिं	-4023
वृक्ष	-4024
िभ्यः	-4025
▁अर्ध	-4026
▁उपास	-4027
▁मंजू	-4028
▁लेना	-4029
▁कितने	-4030
▁दुर्ग	-4031
▁पक्षी	-4032
▁श्रृण	-4033
▁उपग्रह	-4034
▁ज्ञानं	-4035
▁रविवार	-4036
▁स्पर्श	-4037
▁ग्रामीण	-4038
▁महात्मा	-4039
▁वार्षिक	-4040
सभानिर्वा	-4041
क्षेत्रस्य	-4042
यर	-4043
गतः	-4044
तेः	-4045
पुल	-4046
ुरी	-4047
ेते	-4048
ोहर	-4049
▁हस	-4050
गीता	-4051
म्बा	-4052
विभा	-4053
▁बजट	-4054
▁बलि	-4055
▁संप	-4056
कृष्ट	-4057
ामर्श	-4058
ोत्तम	-4059
▁कठोर	-4060
▁खाने	-4061
▁पद्म	-4062
▁रखने	-4063
▁श्रो	-4064
▁सदैव	-4065
शिक्षा	-4066
▁एतदति	-4067
▁जिज्ञ	-4068
▁मिश्र	-4069
▁विवाद	-4070
▁व्यर्थ	-4071
▁गुरुकुल	-4072
▁विस्तृत	-4073
▁अत्यन्तं	-4074
▁गमिष्यति	-4075
▁नरेन्द्र	-4076
▁रामचन्द्र	-4077
▁चिकित्सालय	-4078
डि	-4079
ृश	-4080
▁‘	-4081
लाः	-4082
च्छा	-4083
र्मः	-4084
लाइन	-4085
▁लता	-4086
▁पीड़	-4087
▁मौसम	-4088
▁सड़क	-4089
▁सागर	-4090
▁हरित	-4091
क्षणिक	-4092
▁खादति	-4093
▁जागरू	-4094
▁निलंब	-4095
▁प्रजा	-4096
▁वक्ता	-4097
▁विनाश	-4098
▁विषयः	-4099
▁कृतवती	-4100
▁भवन्तः	-4101
▁सरकारी	-4102
न्यायालय	-4103
▁अमेरिका	-4104
▁प्रेरित	-4105
▁कार्यकर्ता	-4106
▁उत्तरप्रदेश	-4107
तों	-4108
नार	-4109
वद्	-4110
सङ्	-4111
ेता	-4112
्ला	-4113
▁तौ	-4114
णाति	-4115
फेसर	-4116
व्यय	-4117
▁अंक	-4118
▁अवर	-4119
▁आवि	-4120
▁धेन	-4121
▁मत्	-4122
▁किलो	-4123
▁विजे	-4124
▁स्थल	-4125
▁अक्षर	-4126
▁एकत्र	-4127
▁ग्राह	-4128
▁त्वां	-4129
▁प्रश्	-4130
▁साहाय	-4131
▁वदन्ति	-4132
▁सोमवार	-4133
▁धार्मिक	-4134
▁परीक्षण	-4135
▁प्रतिमा	-4136
▁विद्यते	-4137
▁तुम्हारी	-4138
▁सुरक्षित	-4139
▁अर्थव्यवस्था	-4140
▁हिमाचलप्रदेशस्य	-4141
वर्	-4142
संघ	-4143
ांच	-4144
ाये	-4145
ैंक	-4146
▁चोर	-4147
▁दाय	-4148
▁वाम	-4149
▁वास	-4150
्यादा	-4151
▁अंदर	-4152
▁आगतः	-4153
▁छोटा	-4154
▁बाबा	-4155
यितुम्	-4156
▁अनन्त	-4157
▁एतादृ	-4158
▁बनाया	-4159
▁बारिश	-4160
▁भाग्य	-4161
▁कर्मों	-4162
▁विधेयक	-4163
▁शब्दों	-4164
माध्यमेन	-4165
▁निष्कास	-4166
▁उद्घाटनं	-4167
विश्वविद्यालयस्य	-4168
एन	-4169
शत	-4170
ूय	-4171
ॉल	-4172
तमं	-4173
दपि	-4174
पदं	-4175
हृद	-4176
ैया	-4177
भवत्	-4178
▁कुश	-4179
▁मकर	-4180
▁यही	-4181
▁अपरा	-4182
▁आपने	-4183
▁पेड़	-4184
▁महती	-4185
▁रामं	-4186
▁विभी	-4187
▁विरा	-4188
▁सर्प	-4189
कर्तुं	-4190
▁पृथक्	-4191
विभागेन	-4192
स्ट्रेल	-4193
▁अभिषेक	-4194
▁आक्रमण	-4195
▁उपक्रम	-4196
▁शीघ्रं	-4197
▁समन्वय	-4198
▁कर्तुम्	-4199
▁संरक्षण	-4200
▁समर्पित	-4201
▁बर्फबारी	-4202
▁विद्यमान	-4203
▁प्रतीक्षा	-4204
गं	-4205
घ्न	-4206
चीत	-4207
ण्ट	-4208
फलं	-4209
बाह	-4210
लाय	-4211
▁गम	-4212
▁जू	-4213
रूपी	-4214
व्यः	-4215
▁इयं	-4216
▁एस्	-4217
▁गिन	-4218
▁चिर	-4219
▁दृढ	-4220
▁रखा	-4221
▁वंश	-4222
▁सञ्	-4223
तंत्र	-4224
▁इंटर	-4225
▁एतेन	-4226
▁कुक्	-4227
▁चतुर	-4228
▁छाया	-4229
▁नगरे	-4230
▁उपविश	-4231
▁खाद्य	-4232
▁चाहती	-4233
▁हमारी	-4234
▁अग्रिम	-4235
▁स्नानं	-4236
▁प्राप्न	-4237
▁चन्द्रमा	-4238
▁पार्श्वे	-4239
क्षेत्रेषु	-4240
्राष्ट्रीय	-4241
▁राज्यसर्वकारेण	-4242
कम	-4243
खल	-4244
षी	-4245
पेट	-4246
शरी	-4247
सिक	-4248
िसह	-4249
ीयः	-4250
▁लभ	-4251
त्तम	-4252
वसाय	-4253
श्रु	-4254
▁घास	-4255
▁साफ	-4256
▁साव	-4257
▁अस्म	-4258
▁कहने	-4259
▁कीमत	-4260
▁नाना	-4261
▁करिये	-4262
▁चन्दन	-4263
▁निर्ध	-4264
▁प्रेर	-4265
▁बढ़ती	-4266
▁मनाली	-4267
ोजनानां	-4268
▁अर्थात	-4269
▁जाऊँगा	-4270
▁बातचीत	-4271
▁सर्वाणि	-4272
▁प्रोफेसर	-4273
▁स्वतन्त्र	-4274
एल	-4275
गू	-4276
यल	-4277
नंद	-4278
माह	-4279
रम्	-4280
षित	-4281
सुख	-4282
ाले	-4283
▁झू	-4284
▁वय	-4285
जनों	-4286
ड़कर	-4287
सञ्च	-4288
▁दास	-4289
▁बंद	-4290
▁मौत	-4291
पात्र	-4292
भाग्य	-4293
हादुर	-4294
▁जंगल	-4295
▁भर्त	-4296
▁सबका	-4297
वस्त्र	-4298
▁कृपया	-4299
▁गोपाल	-4300
▁वादने	-4301
▁सनातन	-4302
▁सुदृढ	-4303
▁हरिया	-4304
▁जानामि	-4305
▁प्रेरण	-4306
▁मंजूरी	-4307
▁शकुन्त	-4308
▁हिन्दू	-4309
▁अगच्छत्	-4310
▁अग्निहो	-4311
▁अस्पताल	-4312
▁चलचित्रं	-4313
▁निर्माणं	-4314
▁प्रतिबद्ध	-4315
▁प्राप्तवन्तः	-4316
ुड	-4317
भ्र	-4318
यतु	-4319
▁खे	-4320
▁दै	-4321
▁फे	-4322
▁यम	-4323
वर्य	-4324
▁आये	-4325
▁ताव	-4326
▁पीठ	-4327
न्द्व	-4328
म्परा	-4329
ान्तः	-4330
▁प्रह	-4331
▁वानर	-4332
क्रमाः	-4333
ठाकुरः	-4334
स्यामि	-4335
▁अधिसू	-4336
▁काङ्ग	-4337
▁जीवित	-4338
▁परिसर	-4339
▁मात्र	-4340
▁मुकेश	-4341
▁विराज	-4342
▁संवत्	-4343
▁सैन्य	-4344
▁हिमपा	-4345
▁अज्ञान	-4346
▁छात्रः	-4347
▁जाएंगे	-4348
▁परंपरा	-4349
▁निलंबित	-4350
▁पत्रकार	-4351
▁पुरुषों	-4352
▁विद्वान	-4353
▁सूक्ष्म	-4354
▁विद्वान्	-4355
▁आगच्छन्ति	-4356
▁सुनिश्चित	-4357
दम्	-4358
दीय	-4359
दुः	-4360
पदे	-4361
सन्	-4362
▁चं	-4363
▁वश	-4364
्यात	-4365
▁फलं	-4366
▁मणि	-4367
▁रोज	-4368
विमान	-4369
संधान	-4370
▁कक्ष	-4371
▁कृपा	-4372
▁कपड़े	-4373
▁कॉलेज	-4374
▁मारने	-4375
▁श्रवण	-4376
स्यन्ति	-4377
▁कुलदीप	-4378
▁छुट्टी	-4379
▁लगातार	-4380
▁एकमात्र	-4381
▁नियंत्र	-4382
▁स्वच्छता	-4383
▁छात्राणां	-4384
▁प्रसन्नता	-4385
▁शास्त्रों	-4386
▁सर्वकारीय	-4387
▁सर्वेक्षण	-4388
▁स्त्रियों	-4389
भर	-4390
ासा	-4391
▁घी	-4392
▁रच	-4393
▁वं	-4394
गताः	-4395
तवती	-4396
तेषु	-4397
देवी	-4398
परिस	-4399
शासन	-4400
▁अके	-4401
▁पदक	-4402
▁बोध	-4403
▁यद्	-4404
▁वाप	-4405
स्यते	-4406
ोत्तर	-4407
▁इनके	-4408
▁कोवि	-4409
▁छोटे	-4410
▁जाएँ	-4411
▁दीपक	-4412
▁सच्च	-4413
ितानां	-4414
▁अध्या	-4415
▁आनयति	-4416
▁पित्त	-4417
▁भगवतः	-4418
▁विवरण	-4419
▁शांति	-4420
▁श्रीर	-4421
▁स्वकी	-4422
▁अकादमी	-4423
▁कथ्यते	-4424
▁क्रमशः	-4425
▁सम्पाद	-4426
▁पराक्रम	-4427
▁प्राणों	-4428
▁करिष्यन्ति	-4429
▁एतदतिरिक्तं	-4430
ंट	-4431
कुट	-4432
▁भज	-4433
▁रि	-4434
कान्	-4435
सस्य	-4436
▁ताम	-4437
▁तेष	-4438
▁मोद	-4439
▁सङ्	-4440
द्वित	-4441
पुराण	-4442
वस्था	-4443
ोक्तं	-4444
▁अशोक	-4445
▁आश्व	-4446
▁गंगा	-4447
▁चलते	-4448
▁चालय	-4449
▁द्रो	-4450
▁निगम	-4451
▁निशा	-4452
▁शनैः	-4453
▁सारा	-4454
▁आवेदन	-4455
▁मण्डल	-4456
▁शुक्ल	-4457
▁अप्रैल	-4458
▁कैकेयी	-4459
▁डिग्री	-4460
▁तपस्या	-4461
▁न्यूनी	-4462
▁मुक्ति	-4463
▁कदाचित्	-4464
▁किञ्चित्	-4465
▁शैक्षणिक	-4466
▁श्रीरामः	-4467
▁प्रत्येकं	-4468
▁संस्कृतभार	-4469
▁संस्कृतस्य	-4470
गृ	-4471
यै	-4472
धीश	-4473
▁धा	-4474
कन्द	-4475
ड्डा	-4476
दाता	-4477
मीटर	-4478
सप्त	-4479
िकार	-4480
्येन	-4481
▁खोल	-4482
▁गईं	-4483
▁षट्	-4484
दृष्ट	-4485
द्वयं	-4486
र्थम्	-4487
र्वाद	-4488
▁उज्ज	-4489
▁जीता	-4490
▁दूरी	-4491
▁नौका	-4492
▁शीतल	-4493
▁सबके	-4494
▁पंजाब	-4495
▁पुनर्	-4496
▁बोलना	-4497
संस्थान	-4498
▁इत्येत	-4499
▁मुर्मू	-4500
▁स्टेशन	-4501
▁हिरण्य	-4502
▁आचार्यः	-4503
▁आधारभूत	-4504
▁संस्थाप	-4505
▁करनेवाले	-4506
▁क्षेत्रे	-4507
▁निरीक्षण	-4508
स्ट्रेलिया	-4509
▁विद्वानों	-4510
कू	-4511
हरी	-4512
▁गं	-4513
▁रन	-4514
▁वज	-4515
कम्प	-4516
स्थे	-4517
ोंसे	-4518
▁उड़	-4519
▁गम्	-4520
▁युग	-4521
▁सहन	-4522
न्नाः	-4523
विचार	-4524
▁खड़े	-4525
▁फेंक	-4526
ग्रन्थ	-4527
वृत्ति	-4528
िसहस्र	-4529
▁अन्ते	-4530
▁एतेषु	-4531
▁तावत्	-4532
▁मुझसे	-4533
▁सर्वा	-4534
▁सिंहः	-4535
▁सृष्ट	-4536
पश्चात्	-4537
ष्टाचार	-4538
▁आधारित	-4539
▁चरित्र	-4540
▁प्रियं	-4541
▁मन्यते	-4542
▁राजकीय	-4543
▁विलम्ब	-4544
▁बुद्धिम	-4545
▁अंतरिक्ष	-4546
▁व्याख्या	-4547
▁निर्धारित	-4548
▁प्रत्यक्ष	-4549
000	-4550
गता	-4551
चान	-4552
तिं	-4553
भोग	-4554
लाप	-4555
साथ	-4556
ायत	-4557
▁जर	-4558
▁लु	-4559
गच्छ	-4560
चन्द	-4561
ञ्जल	-4562
माने	-4563
राणि	-4564
वसरे	-4565
▁तार	-4566
▁पीड	-4567
▁सके	-4568
वृष्ट	-4569
ान्ते	-4570
▁अव्य	-4571
▁अस्त	-4572
▁उदाह	-4573
▁कौरव	-4574
▁खण्ड	-4575
▁दुष्	-4576
▁नन्द	-4577
▁महाम	-4578
▁राजन	-4579
▁विगत	-4580
मासीत्	-4581
▁इंग्ल	-4582
▁जायते	-4583
▁जिसने	-4584
▁जुड़े	-4585
▁द्वेष	-4586
▁धर्मा	-4587
▁मतदान	-4588
▁रहस्य	-4589
▁नाम्ना	-4590
▁प्रहार	-4591
▁याताया	-4592
▁स्तरीय	-4593
▁तस्मात्	-4594
▁सार्वजन	-4595
▁पर्याप्त	-4596
▁वस्त्राणि	-4597
ंभ	-4598
ोड	-4599
▁७	-4600
ूढ़	-4601
▁आश	-4602
▁टू	-4603
ङ्कर	-4604
दात्	-4605
मान्	-4606
्यार	-4607
▁उम्	-4608
▁पका	-4609
▁साइ	-4610
मण्डल	-4611
र्जाल	-4612
▁स्तः	-4613
क्षत्र	-4614
शस्त्र	-4615
▁असत्य	-4616
▁किसान	-4617
▁जानकर	-4618
▁प्रभो	-4619
▁मध्या	-4620
▁पर्यटक	-4621
▁फ़िल्म	-4622
▁रामस्य	-4623
▁वाहनों	-4624
▁प्रतिपाद	-4625
▁प्रतिवेद	-4626
▁प्रदातुं	-4627
▁राजमार्ग	-4628
▁शकुन्तला	-4629
▁संस्कृते	-4630
▁इत्यस्मिन्	-4631
▁राज्यसर्वकारः	-4632
घन	-4633
ोस	-4634
ल्ड	-4635
संग	-4636
ोवर	-4637
▁19	-4638
▁चो	-4639
▁डे	-4640
गृहे	-4641
जीवन	-4642
ीनां	-4643
▁कंप	-4644
▁करा	-4645
▁ताद	-4646
▁धृत	-4647
▁पोष	-4648
▁माध	-4649
▁मुर	-4650
▁सीट	-4651
लोक्य	-4652
ानस्य	-4653
▁आवेद	-4654
▁कहना	-4655
▁क्षी	-4656
▁पटना	-4657
▁पाठक	-4658
▁बैठे	-4659
चार्यः	-4660
िष्यति	-4661
▁त्रयो	-4662
▁पूज्य	-4663
▁अद्भुत	-4664
▁उक्तम्	-4665
▁कुल्लू	-4666
▁पहुंचे	-4667
▁राज्यं	-4668
▁विभीषण	-4669
▁श्रीरघ	-4670
▁संरचना	-4671
▁स्तुति	-4672
▁कार्यम्	-4673
▁किसानों	-4674
▁पार्वती	-4675
▁ऐतिहासिक	-4676
▁पुस्तकें	-4677
▁तत्पश्चात्	-4678
यण	-4679
धाम	-4680
लिक	-4681
ादि	-4682
ुता	-4683
▁ऑन	-4684
▁खर	-4685
एँगे	-4686
चर्य	-4687
टिका	-4688
ण्डी	-4689
भट्ट	-4690
▁केन	-4691
▁पहन	-4692
▁बाँ	-4693
▁रमा	-4694
दलस्य	-4695
न्तम्	-4696
योग्य	-4697
्यासं	-4698
▁गर्म	-4699
▁जाये	-4700
▁निजी	-4701
▁पाणि	-4702
▁प्रच	-4703
▁मोहन	-4704
▁विधा	-4705
▁आगत्य	-4706
▁मिलकर	-4707
▁लाहौल	-4708
ब्रवीत्	-4709
▁करूँगा	-4710
▁नित्यं	-4711
▁निवसति	-4712
▁पीड़ित	-4713
▁प्रवाह	-4714
▁भ्राता	-4715
▁मिट्टी	-4716
▁अनुवर्त	-4717
▁गृहीत्वा	-4718
▁प्राप्तम्	-4719
उस	-4720
जर	-4721
मर	-4722
वल	-4723
कमल	-4724
गोल	-4725
मिव	-4726
शेष	-4727
ासी	-4728
िना	-4729
ोद्	-4730
▁||	-4731
▁आत	-4732
▁ऊँ	-4733
▁लल	-4734
अपने	-4735
सङ्घ	-4736
ानाम	-4737
▁उतर	-4738
▁दिए	-4739
▁न्य	-4740
▁मुह	-4741
▁सती	-4742
चंद्र	-4743
जीकृत	-4744
त्तीस	-4745
ध्याय	-4746
न्यास	-4747
व्याप	-4748
ष्कार	-4749
स्त्य	-4750
▁आनंद	-4751
▁आवां	-4752
▁जनजा	-4753
▁तेषु	-4754
▁स्तो	-4755
निर्वा	-4756
मार्गे	-4757
ालयस्य	-4758
▁अक्षय	-4759
▁काव्य	-4760
▁गायति	-4761
▁जिसकी	-4762
▁पढ़ते	-4763
▁मातुः	-4764
▁रिक्त	-4765
▁शिशिर	-4766
ध्यात्म	-4767
▁पण्डित	-4768
▁प्रशास	-4769
▁व्यापक	-4770
▁सभायां	-4771
▁गुरुवार	-4772
▁राजधानी	-4773
▁व्याकुल	-4774
▁स्वयमेव	-4775
▁प्रविष्ट	-4776
▁सार्वजनिक	-4777
▁श्रीरघुनाथ	-4778
किम	-4779
▁धर	-4780
▁१९	-4781
ंखला	-4782
धारण	-4783
र्जन	-4784
ार्ड	-4785
ूनां	-4786
ोपाल	-4787
▁दैव	-4788
▁पहा	-4789
▁पाय	-4790
महोदय	-4791
ान्धी	-4792
▁ईश्व	-4793
▁ज्ञा	-4794
▁मंडी	-4795
▁मिशन	-4796
▁लगता	-4797
▁लाता	-4798
▁शिला	-4799
▁सेवन	-4800
▁हुये	-4801
प्रसाद	-4802
वार्ता	-4803
संख्या	-4804
▁चरणों	-4805
▁त्रयः	-4806
▁परिषद	-4807
▁पीड़ा	-4808
▁प्रको	-4809
▁सञ्जा	-4810
▁सशक्त	-4811
जनपदस्य	-4812
विंशतिः	-4813
▁उत्थाप	-4814
▁प्राणी	-4815
▁मुम्बई	-4816
▁सत्त्व	-4817
▁समाधान	-4818
▁ज्येष्ठ	-4819
▁प्रयोजन	-4820
▁युधिष्ठ	-4821
▁विभागों	-4822
▁सदस्यों	-4823
▁सैनिकों	-4824
▁अनुसंधान	-4825
▁प्रावधान	-4826
▁सर्वश्रेष्ठ	-4827
▁मन्त्रिमण्डल	-4828
अल	-4829
मौ	-4830
्प	-4831
कोश	-4832
शाह	-4833
ासि	-4834
▁15	-4835
▁इक	-4836
क्सी	-4837
शंकर	-4838
ह्ने	-4839
▁उन्	-4840
▁तया	-4841
▁बीस	-4842
▁भजन	-4843
▁रघु	-4844
▁शता	-4845
▁स्फ	-4846
▁ह्य	-4847
न्त्य	-4848
सिष्ठ	-4849
▁क्षु	-4850
▁गिरा	-4851
▁घरों	-4852
▁निगद	-4853
▁पटेल	-4854
▁पतिः	-4855
▁ब्रू	-4856
▁मिले	-4857
▁युवक	-4858
▁शुरु	-4859
केभ्यः	-4860
▁एतानि	-4861
▁द्वीप	-4862
▁लिखति	-4863
▁सुन्द	-4864
▁अवस्था	-4865
▁अस्त्र	-4866
▁भारतेन	-4867
▁ज्योतिष	-4868
▁भवितुम्	-4869
▁व्याघ्र	-4870
▁श्रीमद्	-4871
▁उत्पत्ति	-4872
▁करनेवाला	-4873
▁नियुक्ति	-4874
▁महापुरुष	-4875
▁विशेषज्ञ	-4876
▁विद्यालये	-4877
मध	-4878
ुआ	-4879
कथा	-4880
घाट	-4881
टेड	-4882
मेत	-4883
लाव	-4884
▁12	-4885
▁यद	-4886
त्यः	-4887
दिनः	-4888
परिक	-4889
माला	-4890
रिया	-4891
सङ्ग	-4892
स्कर	-4893
▁कमी	-4894
▁गतः	-4895
▁पहल	-4896
च्चार	-4897
टुम्ब	-4898
विश्य	-4899
▁तदान	-4900
▁देगा	-4901
▁वादन	-4902
▁सुलभ	-4903
▁अधर्म	-4904
▁अवतार	-4905
▁पृष्ट	-4906
▁भिक्ष	-4907
▁श्राव	-4908
▁श्वेत	-4909
▁संगठन	-4910
▁अनुमान	-4911
▁अनुरोध	-4912
▁अन्यथा	-4913
▁अभिलेख	-4914
▁दत्तम्	-4915
▁सर्वथा	-4916
▁हिस्सा	-4917
▁मंगलवार	-4918
▁योजनाओं	-4919
▁वस्तूनि	-4920
प्रक्रिया	-4921
▁इंग्लैंड	-4922
▁सम्मानित	-4923
▁पुस्तकानि	-4924
▁प्रतिवर्ष	-4925
▁बुद्धिमान	-4926
▁मार्गदर्श	-4927
▁अग्निहोत्री	-4928
ँप	-4929
गढ	-4930
वद	-4931
▁9	-4932
दोष	-4933
लम्	-4934
ाजी	-4935
जन्म	-4936
शिया	-4937
्रोल	-4938
▁अहो	-4939
▁आदर	-4940
▁पान	-4941
▁मोर	-4942
▁शेर	-4943
वार्त	-4944
विशेष	-4945
िंशत्	-4946
▁गांव	-4947
▁चलने	-4948
▁बनाई	-4949
▁बैठा	-4950
▁भवतु	-4951
▁मस्त	-4952
▁रखकर	-4953
▁समाप	-4954
▁सहसा	-4955
▁सारे	-4956
मानस्य	-4957
ष्यामः	-4958
▁कविता	-4959
▁गुरुः	-4960
▁चतुर्	-4961
▁ध्वनि	-4962
▁बन्धु	-4963
▁बल्कि	-4964
▁मङ्गल	-4965
▁वदामि	-4966
ण्डलस्य	-4967
सम्बद्ध	-4968
▁कुर्मः	-4969
▁गन्तुं	-4970
▁दरवाजे	-4971
▁नेताओं	-4972
▁पिताजी	-4973
▁यद्यपि	-4974
▁वास्तव	-4975
▁सम्प्र	-4976
▁प्रस्तु	-4977
राष्ट्रीय	-4978
▁प्रतिभाग	-4979
▁विश्वस्य	-4980
▁हस्ताक्ष	-4981
ुट	-4982
्स	-4983
किक	-4984
ञ्छ	-4985
तरं	-4986
निध	-4987
पूर	-4988
म्र	-4989
लीय	-4990
लोग	-4991
ायन	-4992
िन्	-4993
ुका	-4994
▁कफ	-4995
▁क्	-4996
▁खो	-4997
▁चै	-4998
▁बच	-4999
द्दी	-5000
वादन	-5001
वासर	-5002
▁अधि	-5003
▁इन्	-5004
▁गोल	-5005
▁तरफ	-5006
▁दीन	-5007
▁लोभ	-5008
▁सोल	-5009
दिवसे	-5010
सूचित	-5011
▁कण्ठ	-5012
▁छोटी	-5013
▁जांच	-5014
▁तमिल	-5015
▁दुबई	-5016
▁परिक	-5017
▁पीता	-5018
▁यानं	-5019
▁सेवक	-5020
▁स्रो	-5021
ग्रस्त	-5022
प्रदान	-5023
▁उनमें	-5024
▁कथितं	-5025
▁कामना	-5026
▁जीवनं	-5027
▁देवों	-5028
▁बन्दर	-5029
▁बोलती	-5030
▁मनाया	-5031
▁वाराण	-5032
▁सम्भव	-5033
ारविन्द	-5034
▁मासस्य	-5035
▁आयोजिते	-5036
मन्दिरस्य	-5037
▁उत्कृष्ट	-5038
▁द्रष्टुं	-5039
▁मिलित्वा	-5040
▁त्यक्त्वा	-5041
▁प्रदर्शित	-5042
▁राष्ट्रपतिः	-5043
ोच	-5044
चेत	-5045
नीत	-5046
राव	-5047
वणं	-5048
स्क	-5049
ोतल	-5050
ोदर	-5051
ोमि	-5052
▁ऑफ	-5053
▁कन	-5054
ेयुः	-5055
▁अनि	-5056
▁कहे	-5057
▁वर्	-5058
▁सेब	-5059
▁स्य	-5060
चित्त	-5061
द्यते	-5062
पुलिस	-5063
राणां	-5064
▁अगले	-5065
▁आरोह	-5066
▁कुतः	-5067
▁त्यज	-5068
▁धनम्	-5069
▁नयति	-5070
▁नारी	-5071
▁महत्	-5072
▁सोना	-5073
गच्छति	-5074
ब्रह्म	-5075
▁अहमपि	-5076
▁आलस्य	-5077
▁तुमने	-5078
▁थोड़ा	-5079
▁निवेद	-5080
▁विवेक	-5081
▁सुंदर	-5082
▁अनुकूल	-5083
▁पूर्वक	-5084
▁प्रविश	-5085
▁मुद्रा	-5086
▁रेलयान	-5087
▁सक्रिय	-5088
▁स्थानं	-5089
▁अवशिष्ट	-5090
▁कांगड़ा	-5091
▁पुत्रों	-5092
▁मन्त्री	-5093
▁स्वाधीन	-5094
▁अधिसूचना	-5095
▁उत्तीर्ण	-5096
▁सोमवासरे	-5097
▁उपाध्यक्ष	-5098
▁युधिष्ठिर	-5099
▁हिमसंस्कृत	-5100
▁कर्मचारियों	-5101
▁कोटिरूप्यकाणि	-5102
उप	-5103
थे	-5104
पो	-5105
लत	-5106
गमन	-5107
र्ह	-5108
ृता	-5109
▁एच	-5110
▁नय	-5111
▁सफ	-5112
देवः	-5113
भ्रम	-5114
म्बु	-5115
वश्य	-5116
ौद्ध	-5117
्तिक	-5118
्वाद	-5119
▁अंश	-5120
▁उदय	-5121
▁शाल	-5122
▁हवन	-5123
युद्ध	-5124
वृद्ध	-5125
▁आहार	-5126
▁जगदी	-5127
▁द्वे	-5128
▁भूमौ	-5129
▁मनोर	-5130
▁वज्र	-5131
क्रीडा	-5132
यन्त्र	-5133
▁उपकरण	-5134
▁क्लेश	-5135
▁दीयते	-5136
▁देखना	-5137
▁रोहित	-5138
▁सक्षम	-5139
▁स्थूल	-5140
▁अनुसरण	-5141
▁ऑनलाइन	-5142
▁दुर्लभ	-5143
▁द्वयोः	-5144
▁भवितुं	-5145
▁गोविन्द	-5146
▁प्रख्या	-5147
▁विश्राम	-5148
▁हरियाणा	-5149
▁औद्योगिक	-5150
▁विद्यालयं	-5151
एफ	-5152
ूब	-5153
ूष	-5154
कोष	-5155
खनऊ	-5156
नाश	-5157
वात	-5158
▁झा	-5159
▁टा	-5160
कड़ी	-5161
कालं	-5162
दूषण	-5163
नाति	-5164
लात्	-5165
ान्न	-5166
ेष्व	-5167
▁खबर	-5168
▁चाव	-5169
▁जेल	-5170
▁तम्	-5171
▁बहि	-5172
▁बीज	-5173
▁वने	-5174
▁वाक	-5175
▁संल	-5176
▁सति	-5177
छात्र	-5178
तिथिः	-5179
निर्म	-5180
लीवुड	-5181
▁घायल	-5182
▁निपु	-5183
▁पहुँ	-5184
▁बन्द	-5185
▁बारह	-5186
▁बैंक	-5187
▁भेजा	-5188
▁राधा	-5189
▁व्रण	-5190
▁सलाह	-5191
▁सुधा	-5192
कल्याण	-5193
र्माणी	-5194
▁चूर्ण	-5195
▁हिंदू	-5196
▁आदित्य	-5197
▁गच्छसि	-5198
▁धावनां	-5199
▁ध्यानं	-5200
▁पृथिवी	-5201
▁प्रगति	-5202
▁महिलाः	-5203
▁वसिष्ठ	-5204
पुरस्कार	-5205
▁परामर्श	-5206
▁संविधान	-5207
▁प्रक्षेप	-5208
▁प्रोक्तं	-5209
▁रविवासरे	-5210
▁राजनीतिक	-5211
▁शुक्रवार	-5212
▁अन्तरिक्ष	-5213
▁पाठ्यक्रम	-5214
▁प्रशासनिक	-5215
▁परियोजनाओं	-5216
ूढ	-5217
ग्व	-5218
थाय	-5219
दूर	-5220
भाई	-5221
युः	-5222
शोर	-5223
▁भृ	-5224
ज्जा	-5225
नीति	-5226
पर्व	-5227
पिता	-5228
रणम्	-5229
सागर	-5230
ेत्य	-5231
▁जनः	-5232
▁नीच	-5233
▁फोन	-5234
▁हरा	-5235
कृतम्	-5236
▁पीने	-5237
▁भद्र	-5238
▁मनसि	-5239
▁लोके	-5240
▁वचनं	-5241
▁वेतन	-5242
▁सोशल	-5243
प्रमुख	-5244
प्रशास	-5245
श्वर्य	-5246
▁उसमें	-5247
▁कितना	-5248
▁जनान्	-5249
▁पुरतः	-5250
▁वन्दे	-5251
▁स्वीय	-5252
▁छत्तीस	-5253
▁देवराज	-5254
▁माननीय	-5255
▁यन्त्र	-5256
▁सन्देश	-5257
चिकित्सा	-5258
▁उत्पादन	-5259
▁जानकारी	-5260
▁पश्यामि	-5261
▁वस्तुएँ	-5262
▁सामग्री	-5263
▁स्टार्ट	-5264
▁अनन्तरम्	-5265
▁चलचित्रे	-5266
▁नेतृत्वे	-5267
▁परमेश्वर	-5268
▁श्रृंखला	-5269
▁गमिष्यामि	-5270
▁न्यायाधीश	-5271
▁राजेन्द्र	-5272
▁संस्थानों	-5273
▁संस्थायाः	-5274
हम	-5275
▁:	-5276
रत्	-5277
वां	-5278
ेयः	-5279
▁उत	-5280
▁खि	-5281
जस्य	-5282
ज्ञः	-5283
वक्त	-5284
हस्त	-5285
ुत्व	-5286
ोदया	-5287
▁अधः	-5288
▁असौ	-5289
▁ठहर	-5290
▁बाध	-5291
▁बिल	-5292
▁मुं	-5293
दृश्य	-5294
सत्रे	-5295
सूत्र	-5296
ानात्	-5297
ान्तं	-5298
▁अड्ड	-5299
▁अधीन	-5300
▁आभार	-5301
▁एकदा	-5302
▁कारा	-5303
▁गुफा	-5304
▁वयम्	-5305
▁विंश	-5306
▁हेतु	-5307
ामित्र	-5308
िक्षेप	-5309
▁अस्तु	-5310
▁करोतु	-5311
▁गङ्गा	-5312
▁दीप्त	-5313
▁मान्य	-5314
▁स्वाद	-5315
▁होंगी	-5316
लक्ष्मण	-5317
▁आग्रहं	-5318
▁आधिकार	-5319
▁उत्तरी	-5320
▁पुरातन	-5321
▁याचिका	-5322
▁यात्री	-5323
▁विश्वे	-5324
▁सत्कार	-5325
▁स्वप्न	-5326
▁स्वामि	-5327
▁अध्ययनं	-5328
▁विज्ञाप	-5329
▁अंग्रेजी	-5330
▁अनुमोदनं	-5331
▁अस्माभिः	-5332
▁परिपूर्ण	-5333
▁योजनायाः	-5334
▁आगमिष्यति	-5335
▁दृश्यन्ते	-5336
▁रुप्यकाणि	-5337
▁प्रयोगशाला	-5338
एव	-5339
थर	-5340
दह	-5341
पय	-5342
एगा	-5343
रोग	-5344
स्ल	-5345
▁एज	-5346
▁पल	-5347
▁बर	-5348
▁यौ	-5349
▁१०	-5350
जन्य	-5351
ञ्जन	-5352
देशः	-5353
द्धा	-5354
मेंट	-5355
साधन	-5356
ोऽयं	-5357
▁अहम	-5358
▁कीच	-5359
▁खान	-5360
▁गले	-5361
▁दुख	-5362
▁बां	-5363
▁मरण	-5364
▁शिल	-5365
क्षिक	-5366
प्रथम	-5367
मिच्छ	-5368
▁उवाच	-5369
▁मोबा	-5370
▁रुचि	-5371
▁लेते	-5372
▁वापस	-5373
▁सञ्ज	-5374
▁सिक्	-5375
▁सुखी	-5376
दिवसीय	-5377
प्रकरण	-5378
▁गृह्ण	-5379
▁जिनका	-5380
▁तस्मा	-5381
▁दत्तः	-5382
▁राज्ञ	-5383
▁विपरी	-5384
▁शुभार	-5385
पूर्वकं	-5386
▁आह्वान	-5387
▁कश्मीर	-5388
▁कुमारः	-5389
▁गम्भीर	-5390
▁दुर्बल	-5391
▁शनिवार	-5392
▁समुचित	-5393
▁सुप्री	-5394
▁वित्तीय	-5395
स्वास्थ्य	-5396
▁आशीर्वाद	-5397
▁एतस्मिन्	-5398
▁कार्याणि	-5399
▁वास्तविक	-5400
▁प्राप्नोति	-5401
▁हिमाचलप्रदेशे	-5402
▁8	-5403
नेव	-5404
मैं	-5405
राह	-5406
हाः	-5407
ेंस	-5408
▁सप	-5409
ण्डा	-5410
दुःख	-5411
परिय	-5412
परिष	-5413
ृतम्	-5414
्रिक	-5415
▁घोर	-5416
▁तृण	-5417
▁पैर	-5418
▁भग्	-5419
▁सद्	-5420
निदेश	-5421
नीयम्	-5422
न्तरे	-5423
न्तुं	-5424
▁उनको	-5425
▁कथम्	-5426
▁गर्व	-5427
▁तकनी	-5428
▁तानि	-5429
▁महिल	-5430
▁वारं	-5431
नेभ्यः	-5432
भ्याम्	-5433
महोदयः	-5434
स्तरीय	-5435
ानिदेश	-5436
्यन्ते	-5437
▁मण्डी	-5438
▁रक्षण	-5439
▁व्यती	-5440
▁सुभाष	-5441
▁कीर्ति	-5442
▁निवारण	-5443
▁सम्मुख	-5444
▁आगतवान्	-5445
▁पाठशाला	-5446
▁चित्रोतल	-5447
▁शुभकामना	-5448
▁गुरुवासरे	-5449
▁प्राकृतिक	-5450
▁विद्यार्थी	-5451
▁संस्कृतशिक्ष	-5452
▁राज्यसर्वकारस्य	-5453
ँह	-5454
भः	-5455
कवि	-5456
नाद	-5457
भवन	-5458
मीद	-5459
वम्	-5460
हान	-5461
ृतः	-5462
ोहि	-5463
▁जप	-5464
इत्य	-5465
ड्डू	-5466
नापि	-5467
पुरा	-5468
ैतिक	-5469
▁अभू	-5470
▁जोर	-5471
▁मदद	-5472
▁लोह	-5473
▁वसु	-5474
▁हवा	-5475
▁....	-5476
▁एनडी	-5477
▁खड़ा	-5478
▁खाली	-5479
▁त्री	-5480
▁नवदि	-5481
▁पाते	-5482
▁मुद्	-5483
▁यादव	-5484
▁शिमल	-5485
▁गाड़ी	-5486
▁चम्बा	-5487
▁जापान	-5488
▁तत्पर	-5489
▁ददामि	-5490
▁बोर्ड	-5491
▁बौद्ध	-5492
▁भीष्म	-5493
▁कर्त्त	-5494
▁परित्य	-5495
▁मूल्यं	-5496
▁शुरुआत	-5497
प्रतिष्ठ	-5498
▁इंटरनेट	-5499
▁निर्मित	-5500
▁प्रत्यु	-5501
▁मनुष्यः	-5502
▁विचित्र	-5503
प्रतिष्ठा	-5504
▁प्रसारित	-5505
▁प्रातःकाले	-5506
▁भ्रष्टाचार	-5507
▁राष्ट्रस्य	-5508
▁इत्युक्त्वा	-5509
मै	-5510
खेल	-5511
बीस	-5512
लेन	-5513
वित	-5514
▁11	-5515
▁घं	-5516
▁मथ	-5517
▁लव	-5518
▁१५	-5519
कक्ष	-5520
ट्टा	-5521
फ्टी	-5522
ार्य	-5523
ोंका	-5524
ोन्न	-5525
▁अधी	-5526
▁एतद	-5527
▁खोद	-5528
▁धीर	-5529
▁निश	-5530
▁रुक	-5531
▁वाच	-5532
च्छ्र	-5533
विधाय	-5534
सचिवः	-5535
स्पति	-5536
▁उत्थ	-5537
▁कन्द	-5538
▁तत्व	-5539
▁भट्ट	-5540
▁भूषण	-5541
▁लीला	-5542
▁वक्ष	-5543
▁सद्य	-5544
▁सुनो	-5545
गोष्ठी	-5546
त्मानं	-5547
िरूपेण	-5548
▁क्षति	-5549
▁तुलसी	-5550
▁श्वास	-5551
▁संगीत	-5552
▁संदेश	-5553
▁उम्मीद	-5554
▁गृहात्	-5555
▁दीजिये	-5556
▁द्वादश	-5557
▁बढ़ावा	-5558
यिष्यामि	-5559
▁अर्जुनः	-5560
▁क्रोधित	-5561
▁मन्दिरे	-5562
▁श्रीमती	-5563
▁सुप्रीम	-5564
▁हिमाचली	-5565
▁अनुसूचित	-5566
▁कर्मचारी	-5567
▁पर्यटकों	-5568
▁पूर्वमेव	-5569
▁सन्तुष्ट	-5570
▁सायंकाले	-5571
▁प्रतिनिधि	-5572
▁क्षेत्रेषु	-5573
▁विश्वामित्र	-5574
वो	-5575
हृ	-5576
इये	-5577
णेन	-5578
नया	-5579
निः	-5580
हरण	-5581
िकल	-5582
ियस	-5583
▁मश	-5584
▁सख	-5585
द्धि	-5586
र्गत	-5587
वालः	-5588
▁...	-5589
▁अलं	-5590
▁चिं	-5591
▁चेत	-5592
▁चैव	-5593
▁तपो	-5594
▁ताड	-5595
▁नही	-5596
▁पवन	-5597
▁बलं	-5598
▁बाग	-5599
▁विल	-5600
▁सैक	-5601
जीकरण	-5602
प्राण	-5603
यामास	-5604
र्थ्य	-5605
वर्षे	-5606
िनियम	-5607
▁आकार	-5608
▁महार	-5609
▁मुँह	-5610
▁याति	-5611
▁लाने	-5612
▁सत्त	-5613
▁समित	-5614
▁सुनी	-5615
▁स्नि	-5616
▁अभिनय	-5617
▁अभिने	-5618
▁किन्न	-5619
▁घोषित	-5620
▁तृप्त	-5621
▁बढ़कर	-5622
▁बातें	-5623
▁विकार	-5624
▁विप्र	-5625
▁विहाय	-5626
▁आर्द्र	-5627
▁दिव्या	-5628
▁द्रव्य	-5629
▁निवेदन	-5630
▁महादेव	-5631
▁श्रुति	-5632
▁समायोज	-5633
▁सर्वाः	-5634
▁हिमालय	-5635
▁आयोजिता	-5636
▁दत्त्वा	-5637
▁दिनाङ्क	-5638
▁महोत्सव	-5639
▁विपक्षी	-5640
▁संभावना	-5641
▁उत्तिष्ठ	-5642
▁ज्ञात्वा	-5643
▁लोकसभानिर्वा	-5644
ंथ	-5645
और	-5646
शै	-5647
।"	-5648
गाल	-5649
घात	-5650
जलि	-5651
तला	-5652
थिल	-5653
निष	-5654
पास	-5655
भिर	-5656
सान	-5657
▁एष	-5658
▁जट	-5659
▁जम	-5660
ङ्गः	-5661
पुरी	-5662
स्तव	-5663
▁इला	-5664
▁तुर	-5665
▁पदं	-5666
▁पला	-5667
▁बचा	-5668
▁मंच	-5669
▁मुन	-5670
▁राय	-5671
▁रोद	-5672
▁वात	-5673
▁सब्	-5674
▁हार	-5675
ड़िया	-5676
तानां	-5677
त्रिम	-5678
द्वीप	-5679
निवास	-5680
पक्षे	-5681
शुल्क	-5682
▁जानी	-5683
▁जैसी	-5684
▁निकट	-5685
▁नौकर	-5686
▁पड़ा	-5687
▁पुरी	-5688
▁मछली	-5689
▁लखनऊ	-5690
ज्ञानं	-5691
न्दर्य	-5692
भारतीय	-5693
▁घोड़े	-5694
▁चेन्न	-5695
▁दिवसे	-5696
▁दैत्य	-5697
▁नूतनं	-5698
▁पञ्चा	-5699
▁फूलों	-5700
▁बढ़ता	-5701
▁बनाता	-5702
▁भयंकर	-5703
▁यतोहि	-5704
▁येषां	-5705
▁विनोद	-5706
▁हस्ते	-5707
कुर्वन्	-5708
भारतस्य	-5709
वेन्द्र	-5710
▁अनुदान	-5711
▁अनुवाद	-5712
▁चित्रं	-5713
▁प्रज्ज	-5714
▁प्रताप	-5715
▁विक्रम	-5716
▁शिवाजी	-5717
▁ऐश्वर्य	-5718
▁तमिलनाड	-5719
▁रावणस्य	-5720
▁वस्तुओं	-5721
▁वस्तुतः	-5722
▁स्वाभाव	-5723
▁अतिथियों	-5724
▁पश्यन्ति	-5725
▁विक्रमाद	-5726
▁विरुद्धं	-5727
▁प्राप्यते	-5728
घ्	-5729
जग	-5730
भय	-5731
मण	-5732
ेड	-5733
दन्	-5734
प्प	-5735
ारण	-5736
िवे	-5737
ीये	-5738
ेंद	-5739
▁18	-5740
▁गज	-5741
▁पढ	-5742
▁लघ	-5743
▁हॉ	-5744
ंगाल	-5745
गमनं	-5746
धारा	-5747
प्रौ	-5748
यामः	-5749
ष्मा	-5750
ैश्च	-5751
ॉर्ड	-5752
▁आनय	-5753
▁आना	-5754
▁आभा	-5755
▁टुक	-5756
▁मृद	-5757
▁विम	-5758
▁सहज	-5759
तुष्ट	-5760
त्मनः	-5761
द्याः	-5762
पत्नी	-5763
मिश्र	-5764
सुविध	-5765
▁अतएव	-5766
▁कहां	-5767
▁काला	-5768
▁गर्ज	-5769
▁गृह्	-5770
▁तिथि	-5771
▁मद्य	-5772
▁संकट	-5773
▁समुप	-5774
▁अफ्री	-5775
▁आसक्त	-5776
▁आहत्य	-5777
▁काष्ठ	-5778
▁दुःखी	-5779
▁रक्षक	-5780
▁शून्य	-5781
▁सकारा	-5782
▁सेल्स	-5783
▁हत्या	-5784
▁असमर्थ	-5785
▁आरब्धा	-5786
▁आरम्भः	-5787
▁इत्येव	-5788
▁किनारे	-5789
▁क्षमता	-5790
▁बुधवार	-5791
▁सीताजी	-5792
▁आमन्त्र	-5793
▁उद्यानं	-5794
▁खिलाड़ी	-5795
▁विचारों	-5796
▁सन्दर्भ	-5797
▁सैकड़ों	-5798
▁अध्यात्म	-5799
▁किलोमीटर	-5800
▁गणतन्त्र	-5801
▁इत्यस्याः	-5802
▁वर्धयितुं	-5803
धौ	-5804
पृ	-5805
ृज	-5806
ेर	-5807
निम	-5808
लये	-5809
शुभ	-5810
षणं	-5811
समय	-5812
साह	-5813
ियः	-5814
▁अँ	-5815
▁री	-5816
दलेन	-5817
दारी	-5818
पीति	-5819
माता	-5820
▁केर	-5821
▁नान	-5822
▁निज	-5823
▁निह	-5824
▁भोः	-5825
▁मूष	-5826
▁सखी	-5827
च्छाद	-5828
निर्भ	-5829
निवेश	-5830
निष्ठ	-5831
स्फोट	-5832
ानगरे	-5833
▁अभिम	-5834
▁आवास	-5835
▁उल्ल	-5836
▁औषधि	-5837
▁कृतं	-5838
▁गणित	-5839
▁गिरी	-5840
▁गीतं	-5841
▁जननी	-5842
▁दुरा	-5843
▁धारा	-5844
▁पितृ	-5845
▁पूजन	-5846
▁भीतर	-5847
▁यहीं	-5848
▁रमेश	-5849
▁विभू	-5850
कार्यं	-5851
्याणां	-5852
▁अपमान	-5853
▁कोलाह	-5854
▁घूमने	-5855
▁जानना	-5856
▁तलवार	-5857
▁धर्मः	-5858
▁प्रयत	-5859
▁मैदान	-5860
▁रावणः	-5861
▁लड़के	-5862
▁विराट	-5863
▁वीर्य	-5864
▁सङ्गी	-5865
▁समीपे	-5866
सेनायाः	-5867
▁अन्तर्	-5868
▁अपेक्ष	-5869
▁उत्तरं	-5870
▁चतुर्द	-5871
▁जाएँगे	-5872
▁नियमित	-5873
▁प्रतीत	-5874
▁प्रथमा	-5875
▁प्रांत	-5876
▁प्रीति	-5877
▁मात्रा	-5878
▁मानसिक	-5879
▁मूर्ति	-5880
सर्वकारः	-5881
▁आरब्धम्	-5882
▁तदनन्तर	-5883
▁तेजस्वी	-5884
▁दुर्योध	-5885
▁मित्रता	-5886
▁राजनीति	-5887
▁शिक्षकः	-5888
▁प्रदत्ता	-5889
▁मंगलवासरे	-5890
▁ऑस्ट्रेलिया	-5891
रौ	-5892
▁९	-5893
करं	-5894
जम्	-5895
जिए	-5896
ढ़ी	-5897
धरी	-5898
मौर	-5899
शिख	-5900
सला	-5901
ुर्	-5902
ूबर	-5903
ृतं	-5904
▁छः	-5905
नीयं	-5906
पत्त	-5907
म्भः	-5908
र्मु	-5909
ृणां	-5910
▁फैल	-5911
▁भरे	-5912
▁वरं	-5913
क्ष्ण	-5914
तियों	-5915
मंत्र	-5916
याणां	-5917
वित्त	-5918
स्तथा	-5919
▁उदार	-5920
▁कैसा	-5921
▁गुणा	-5922
▁पाता	-5923
▁माम्	-5924
▁मीठा	-5925
▁मुखं	-5926
▁मौजू	-5927
▁यूयं	-5928
▁लाया	-5929
▁शक्य	-5930
▁शारी	-5931
▁शृणु	-5932
▁सङ्घ	-5933
▁सुखं	-5934
मानन्द	-5935
विभागे	-5936
ाचार्य	-5937
▁कथयति	-5938
▁गन्तु	-5939
▁पत्थर	-5940
▁बर्तन	-5941
▁रेलगा	-5942
▁लिखता	-5943
▁संशोध	-5944
▁सुनने	-5945
▁हिंसा	-5946
कर्मचार	-5947
द्वितीय	-5948
पक्षस्य	-5949
प्रदर्श	-5950
▁अर्हति	-5951
▁उदाहरण	-5952
▁क्षत्र	-5953
▁युद्धे	-5954
▁श्रीमो	-5955
▁उक्तवती	-5956
▁उपविष्ट	-5957
▁पेट्रोल	-5958
▁वाराणसी	-5959
▁शत्रुओं	-5960
▁सज्जनों	-5961
ध्यात्मिक	-5962
▁आधिकारिक	-5963
▁नियन्त्र	-5964
▁प्राप्तः	-5965
▁माध्यमिक	-5966
▁समाविष्ट	-5967
▁अधिकारिणः	-5968
▁करिष्यामि	-5969
▁कुर्वन्तः	-5970
▁जितेन्द्र	-5971
▁जिन्होंने	-5972
▁प्राप्तवती	-5973
▁विक्रमादित्य	-5974
घट	-5975
तौ	-5976
थः	-5977
फी	-5978
मस	-5979
तको	-5980
थिः	-5981
धिर	-5982
ब्ब	-5983
भिय	-5984
मोद	-5985
म्न	-5986
शोध	-5987
च्छि	-5988
भ्यं	-5989
यानक	-5990
रहित	-5991
रेखा	-5992
लंका	-5993
ानम्	-5994
ालयः	-5995
ुर्य	-5996
ूंगा	-5997
▁अरु	-5998
▁कूप	-5999
▁गरम	-6000
▁गुह	-6001
▁टूट	-6002
▁माप	-6003
▁मूढ	-6004
▁शेख	-6005
▁श्म	-6006
चारिक	-6007
पाण्ड	-6008
पुस्त	-6009
वाक्य	-6010
ानिया	-6011
▁2024	-6012
▁उनसे	-6013
▁उष्ण	-6014
▁कैला	-6015
▁पकड़	-6016
▁पड़े	-6017
▁पाने	-6018
▁पुरा	-6019
▁बद्ध	-6020
▁मांग	-6021
▁मांस	-6022
▁सहैव	-6023
▁स्मः	-6024
राज्ये	-6025
▁अड्डे	-6026
▁अवलोक	-6027
▁कश्चन	-6028
▁क्षीर	-6029
▁जीर्ण	-6030
▁निपुण	-6031
▁पितुः	-6032
▁बाणों	-6033
▁शरीरं	-6034
▁सौम्य	-6035
▁उपासना	-6036
▁करणीयः	-6037
▁कीजिये	-6038
▁ज्यादा	-6039
▁रास्ता	-6040
▁विपरीत	-6041
▁सेवानि	-6042
राज्यस्य	-6043
▁अन्तारा	-6044
▁अभ्यर्थ	-6045
▁अभ्यासं	-6046
▁इत्येते	-6047
▁कुटुम्ब	-6048
▁पितामहः	-6049
▁अवश्यमेव	-6050
▁किमर्थम्	-6051
▁नियंत्रण	-6052
▁प्रतिज्ञ	-6053
▁शनिवासरे	-6054
▁प्रथमवारं	-6055
▁सिद्धान्त	-6056
▁प्रतिष्ठित	-6057
▁ब्रह्मचारी	-6058
▁वार्तालापं	-6059
▁उपमुख्यमंत्री	-6060
19	-6061
घर	-6062
वय	-6063
तमः	-6064
पदा	-6065
ायी	-6066
▁गठ	-6067
▁लॉ	-6068
▁हन	-6069
कात्	-6070
कृतं	-6071
टिया	-6072
ट्ठा	-6073
नियर	-6074
प्रश	-6075
भ्यो	-6076
वात्	-6077
▁अरब	-6078
▁ताः	-6079
▁दात	-6080
▁दें	-6081
▁मैच	-6082
▁राग	-6083
▁वनं	-6084
कान्त	-6085
ग्रहः	-6086
दिश्य	-6087
भाषणं	-6088
सदस्य	-6089
स्थां	-6090
▁किरण	-6091
▁कोमल	-6092
▁खुशी	-6093
▁चलति	-6094
▁जलम्	-6095
▁तत्स	-6096
▁दानं	-6097
▁धातु	-6098
▁परिम	-6099
▁पुष्	-6100
▁प्रद	-6101
▁भयभी	-6102
▁शयनं	-6103
कुमारी	-6104
प्रभाव	-6105
▁जगदीश	-6106
▁द्विज	-6107
▁बैठकर	-6108
▁ब्रिट	-6109
▁समक्ष	-6110
▁सरदार	-6111
ल्ल्यां	-6112
स्तरस्य	-6113
▁उच्चार	-6114
▁कुमारी	-6115
▁ज्ञानी	-6116
▁निन्दा	-6117
▁पुष्टि	-6118
▁प्रथमः	-6119
▁फ्रांस	-6120
▁भक्तों	-6121
▁भाषाओं	-6122
▁महाभाग	-6123
▁रामायण	-6124
▁विदेशी	-6125
▁संयोजक	-6126
▁सुगन्ध	-6127
▁सूचनां	-6128
मण्डलस्य	-6129
योजनायाः	-6130
विधानसभा	-6131
▁खादन्ति	-6132
▁यातायात	-6133
▁व्याप्त	-6134
▁सम्भाषण	-6135
▁सैनिकाः	-6136
▁काङ्गड़ा	-6137
▁कार्यकाल	-6138
▁सेल्सियस	-6139
▁हरिद्वार	-6140
▁परिवर्तनं	-6141
अलग	-6142
थाः	-6143
पाप	-6144
पीड	-6145
वीय	-6146
वेग	-6147
शतं	-6148
शता	-6149
▁--	-6150
▁खन	-6151
▁तत	-6152
▁थै	-6153
▁वट	-6154
▁षड	-6155
,000	-6156
जाता	-6157
त्वे	-6158
दृशं	-6159
न्नः	-6160
भवने	-6161
र्पण	-6162
वायु	-6163
ार्द	-6164
ोपरि	-6165
ोहित	-6166
▁असा	-6167
▁इधर	-6168
▁जयं	-6169
▁दाँ	-6170
▁निध	-6171
▁पेश	-6172
▁बैल	-6173
▁रजत	-6174
▁हल्	-6175
कृताः	-6176
▁अस्थ	-6177
▁आजकल	-6178
▁जाया	-6179
▁तदेव	-6180
▁तोड़	-6181
▁पाया	-6182
▁पाली	-6183
▁मासे	-6184
▁रखना	-6185
▁लंका	-6186
▁समयः	-6187
▁हमले	-6188
गान्धी	-6189
बुद्धि	-6190
▁अध्यय	-6191
▁आगतम्	-6192
▁कारणं	-6193
▁कीर्त	-6194
▁क्षीण	-6195
▁चिह्न	-6196
▁दिनेश	-6197
▁दुराप	-6198
▁पारित	-6199
▁बहूनि	-6200
▁रेलवे	-6201
▁शरीरे	-6202
▁संचार	-6203
दिवसस्य	-6204
▁आधारेण	-6205
▁गुरुजी	-6206
▁गोष्ठी	-6207
▁निवासी	-6208
▁भवेयुः	-6209
▁हिन्दु	-6210
द्वन्द्व	-6211
▁चंद्रमा	-6212
▁लक्षरूप	-6213
▁लाभार्थ	-6214
▁विहितम्	-6215
▁अन्वेषणं	-6216
▁उपस्थितः	-6217
▁प्रयुक्त	-6218
▁प्रदर्शनी	-6219
▁स्वाभाविक	-6220
▁इत्यादीनां	-6221
▁क्षेत्रस्य	-6222
एच	-6223
नम	-6224
जात	-6225
टका	-6226
त्प	-6227
भेद	-6228
लीप	-6229
वली	-6230
शत्	-6231
ेयर	-6232
०००	-6233
▁!!	-6234
▁हल	-6235
क्टर	-6236
पालः	-6237
र्नि	-6238
लाता	-6239
शुल्	-6240
श्चा	-6241
िकरण	-6242
ोंको	-6243
▁अमन	-6244
▁अम्	-6245
▁उदर	-6246
▁कथन	-6247
▁कमा	-6248
▁खिल	-6249
▁तैल	-6250
▁नाद	-6251
▁नृत	-6252
▁भास	-6253
ञ्जलि	-6254
मध्ये	-6255
िकारी	-6256
▁अनिल	-6257
▁असुर	-6258
▁इजरा	-6259
▁कार्	-6260
▁गणेश	-6261
▁जीते	-6262
▁तारा	-6263
▁पीना	-6264
▁बादल	-6265
▁लेखन	-6266
▁वरुण	-6267
▁विशा	-6268
▁शङ्ख	-6269
▁सदृश	-6270
करणस्य	-6271
ड़ियों	-6272
निर्मा	-6273
र्थात्	-6274
▁आगामी	-6275
▁कृताः	-6276
▁कोविड	-6277
▁ददातु	-6278
▁दिवंग	-6279
▁द्रुत	-6280
▁पढ़ना	-6281
▁परंतु	-6282
▁पिबति	-6283
▁फलानि	-6284
▁बन्धन	-6285
▁भोपाल	-6286
▁भौतिक	-6287
▁विषाद	-6288
▁सुनता	-6289
▁सुप्र	-6290
चिकित्स	-6291
विद्याल	-6292
स्त्रीय	-6293
▁अग्रणी	-6294
▁अधिकतम	-6295
▁तदर्थं	-6296
▁त्रीणि	-6297
▁निद्रा	-6298
▁प्रिया	-6299
▁भाजपाद	-6300
▁महर्षि	-6301
▁युवाओं	-6302
दिनाङ्के	-6303
▁जानन्ति	-6304
▁दास्यति	-6305
▁प्रदूषण	-6306
▁प्रेरणा	-6307
▁बॉलीवुड	-6308
▁स्थितिः	-6309
▁स्वागतं	-6310
▁स्वार्थ	-6311
▁तेनोक्तं	-6312
▁निगदितम्	-6313
▁पदार्थों	-6314
▁राज्येषु	-6315
▁श्रीलंका	-6316
▁स्थापयति	-6317
▁अन्तर्जाल	-6318
▁इन्द्रियों	-6319
▁प्रतिक्रिया	-6320
▁काङ्ग्रेसस्य	-6321
▁नरेन्द्रमोदिना	-6322
30	-6323
यत	-6324
वट	-6325
गुर	-6326
जीत	-6327
ढ़े	-6328
पार	-6329
पूज	-6330
विद	-6331
वेष	-6332
शान	-6333
शेख	-6334
ह्व	-6335
ितौ	-6336
▁तय	-6337
▁मय	-6338
कण्ठ	-6339
कार्	-6340
गत्य	-6341
ङ्कः	-6342
त्रि	-6343
न्मा	-6344
पुरे	-6345
मर्द	-6346
यज्ञ	-6347
योजन	-6348
▁एन्	-6349
▁चाप	-6350
▁चुप	-6351
▁तात	-6352
▁दाह	-6353
▁नमः	-6354
▁नाल	-6355
▁पेय	-6356
▁मिन	-6357
▁मौन	-6358
कारेण	-6359
निर्ण	-6360
भ्यास	-6361
ेशनों	-6362
ैक्सी	-6363
▁अङ्क	-6364
▁आन्द	-6365
▁इनका	-6366
▁इसको	-6367
▁उड्ड	-6368
▁करूँ	-6369
▁गाती	-6370
▁तृणं	-6371
▁देशः	-6372
▁नाटक	-6373
▁नेगी	-6374
▁परोप	-6375
▁पुनर	-6376
▁पैदल	-6377
▁मामा	-6378
▁मिली	-6379
▁रुग्	-6380
▁शल्य	-6381
▁२०२४	-6382
स्तस्य	-6383
ियुक्त	-6384
▁एवमेव	-6385
▁कुम्भ	-6386
▁गर्मी	-6387
▁ज्ञाप	-6388
▁त्रिल	-6389
▁नियोज	-6390
▁बृहत्	-6391
▁मनोहर	-6392
▁मस्तक	-6393
▁मोहित	-6394
▁युवां	-6395
▁वृन्द	-6396
▁सार्थ	-6397
▁हास्य	-6398
चलचित्र	-6399
प्रबन्ध	-6400
ानगरस्य	-6401
▁अयोध्य	-6402
▁उद्धार	-6403
▁द्रोणा	-6404
▁नामानि	-6405
▁निफ्टी	-6406
▁मार्गः	-6407
▁रघुनाथ	-6408
▁सन्तोष	-6409
▁सुरक्ष	-6410
▁अमेरिकी	-6411
▁कृत्रिम	-6412
▁छात्रैः	-6413
▁पृच्छति	-6414
▁हिरण्यक	-6415
▁द्विचक्र	-6416
▁स्थानेषु	-6417
▁उपराष्ट्र	-6418
▁दृष्टवान्	-6419
विद्यालयस्य	-6420
▁शुक्रवासरे	-6421
▁सेवानिवृत्त	-6422
▁प्रधानमन्त्रिणः	-6423
ेम	-6424
ँति	-6425
गान	-6426
जिद	-6427
ट्स	-6428
बाध	-6429
भाज	-6430
याय	-6431
लता	-6432
ष्व	-6433
ायु	-6434
▁),	-6435
▁१६	-6436
गर्भ	-6437
नगरं	-6438
नीयः	-6439
योगी	-6440
ष्टं	-6441
स्खल	-6442
स्सी	-6443
हारे	-6444
ासनं	-6445
ोऽसि	-6446
▁अली	-6447
▁असि	-6448
▁कोष	-6449
▁खेत	-6450
▁गढ़	-6451
▁चलो	-6452
▁चुन	-6453
▁जना	-6454
▁दीं	-6455
▁पों	-6456
▁बाघ	-6457
▁बिभ	-6458
▁मनी	-6459
▁रुच	-6460
▁सकल	-6461
ण्डले	-6462
द्वाज	-6463
फलानि	-6464
संक्र	-6465
स्यां	-6466
ात्मक	-6467
▁अब्द	-6468
▁आएगा	-6469
▁एवम्	-6470
▁क्षि	-6471
▁जबकि	-6472
▁दन्त	-6473
▁लाली	-6474
▁शंकर	-6475
▁स्या	-6476
▁एशिया	-6477
▁कंपनी	-6478
▁जाताः	-6479
▁जीवने	-6480
▁दिनां	-6481
▁बच्चा	-6482
▁मूर्त	-6483
▁यज्ञं	-6484
▁यमुना	-6485
▁रामेण	-6486
▁लकड़ी	-6487
▁लड्डू	-6488
▁लोकों	-6489
▁विजयं	-6490
▁व्याध	-6491
▁संतोष	-6492
▁स्वप्	-6493
परीक्षा	-6494
ार्जिंग	-6495
▁वक्तुं	-6496
▁साइकिल	-6497
▁स्पर्ध	-6498
▁स्मरति	-6499
ामन्त्री	-6500
▁कार्तिक	-6501
▁नेत्रों	-6502
▁परस्परं	-6503
▁प्रकरणे	-6504
▁महिलाएँ	-6505
▁समाजस्य	-6506
▁स्तोत्र	-6507
▁आयुर्वेद	-6508
▁ग्रहीतुं	-6509
▁वातावरणं	-6510
▁सम्भावना	-6511
▁सामर्थ्य	-6512
▁सौन्दर्य	-6513
▁इत्यादिषु	-6514
▁प्रक्षालय	-6515
▁प्राध्याप	-6516
प्रतियोगिता	-6517
▁आध्यात्मिक	-6518
▁श्रीरामस्य	-6519
▁चलच्चित्रस्य	-6520
घम	-6521
बो	-6522
ाई	-6523
कंप	-6524
क्क	-6525
जाल	-6526
ड्ग	-6527
मयं	-6528
राण	-6529
वने	-6530
ालि	-6531
ेयं	-6532
▁14	-6533
▁खल	-6534
▁तन	-6535
▁नद	-6536
▁शश	-6537
धीरे	-6538
निर्	-6539
बाबा	-6540
र्मि	-6541
लंघन	-6542
स्ना	-6543
ाम्य	-6544
िस्र	-6545
▁कही	-6546
▁कौश	-6547
▁गोद	-6548
▁जैन	-6549
▁झूठ	-6550
▁पंक	-6551
▁सोप	-6552
दिनम्	-6553
प्राय	-6554
मूल्य	-6555
यन्तु	-6556
र्ध्व	-6557
सल्या	-6558
▁आम्र	-6559
▁आवाज	-6560
▁आस्त	-6561
▁ईंधन	-6562
▁उग्र	-6563
▁गौतम	-6564
▁घंटे	-6565
▁चंचल	-6566
▁चूड़	-6567
▁जिसे	-6568
▁तादृ	-6569
▁मातु	-6570
▁मिनट	-6571
▁मीटर	-6572
▁रहें	-6573
▁शरणा	-6574
▁सङ्क	-6575
दानन्द	-6576
नार्थं	-6577
स्थितः	-6578
ार्जुन	-6579
▁आस्था	-6580
▁कीचड़	-6581
▁क्षिप	-6582
▁जानकी	-6583
▁निम्न	-6584
▁पांडे	-6585
▁प्राद	-6586
▁प्राह	-6587
▁भयानक	-6588
▁भाष्य	-6589
▁भूकंप	-6590
▁राजन्	-6591
▁शाश्व	-6592
▁सरोवर	-6593
▁सोचकर	-6594
▁हाथों	-6595
अर्थात्	-6596
सत्रस्य	-6597
▁अनुचित	-6598
▁अभिमान	-6599
▁आश्रित	-6600
▁केवलम्	-6601
▁तेभ्यः	-6602
▁दौड़ता	-6603
▁मोबाइल	-6604
▁राजनाथ	-6605
▁रामलला	-6606
▁वृद्धा	-6607
▁संपर्क	-6608
▁सिरमौर	-6609
▁सेविका	-6610
▁अन्यत्र	-6611
▁अभिमन्य	-6612
▁कस्यापि	-6613
▁प्रान्त	-6614
▁व्यवसाय	-6615
▁समारोहे	-6616
▁आविष्कार	-6617
▁गुणवत्ता	-6618
▁जागरूकता	-6619
▁बुधवासरे	-6620
▁राजनैतिक	-6621
▁स्टेशनों	-6622
न्यायालयेन	-6623
▁अभिनेत्री	-6624
▁सकारात्मक	-6625
▁कार्यक्रमः	-6626
▁धृतराष्ट्र	-6627
▁श्रीकृष्णः	-6628
▁स्थापयितुं	-6629
▁प्राप्स्यन्ति	-6630
▁अंतर्राष्ट्रीय	-6631
कै	-6632
फ़	-6633
शू	-6634
सक	-6635
टके	-6636
फ्र	-6637
बिर	-6638
वाण	-6639
ष्क	-6640
सिं	-6641
ाहं	-6642
▁यज	-6643
▁सभ	-6644
▁११	-6645
जनम्	-6646
ञ्चन	-6647
दिकं	-6648
पाठी	-6649
मधुर	-6650
राशि	-6651
वाहन	-6652
श्रय	-6653
स्थं	-6654
हितं	-6655
िकया	-6656
▁आहू	-6657
▁काश	-6658
▁तरी	-6659
▁तैर	-6660
▁दार	-6661
▁पदा	-6662
▁भूप	-6663
▁शाप	-6664
▁शोथ	-6665
▁शौच	-6666
संख्य	-6667
▁अलङ्	-6668
▁गणना	-6669
▁चापि	-6670
▁जल्द	-6671
▁दक्ष	-6672
▁नामा	-6673
▁परम्	-6674
▁रचित	-6675
▁शिशु	-6676
▁साँप	-6677
▁सान्	-6678
▁सेन्	-6679
तत्त्व	-6680
दिनानि	-6681
बहादुर	-6682
र्माणि	-6683
▁अंकों	-6684
▁करोषि	-6685
▁कर्तु	-6686
▁खेलते	-6687
▁गंभीर	-6688
▁जयद्र	-6689
▁तुमको	-6690
▁पैरों	-6691
▁बच्ची	-6692
▁लाहौर	-6693
▁वन्दन	-6694
▁शिलान	-6695
▁सहभाग	-6696
▁सेवां	-6697
तकोत्तर	-6698
▁उत्तमं	-6699
▁किञ्चि	-6700
▁कुत्ते	-6701
▁दर्शनं	-6702
▁पञ्जाब	-6703
▁पठन्ति	-6704
▁मिथ्या	-6705
▁सन्देह	-6706
▁सिद्धि	-6707
शास्त्री	-6708
▁अविद्या	-6709
▁तापमानं	-6710
▁विधायकः	-6711
▁विस्फोट	-6712
▁संयंत्र	-6713
▁समन्वयक	-6714
▁अन्येषां	-6715
▁उपस्थिति	-6716
▁जन्मभूमि	-6717
▁मंत्रियों	-6718
▁सम्बोधयन्	-6719
▁सर्वप्रथम	-6720
▁स्टार्टअप	-6721
▁कल्याणकारी	-6722
▁प्रशिक्षणं	-6723
▁प्राप्स्यति	-6724
▁श्रीरघुनाथजी	-6725
ge	-6726
झा	-6727
भौ	-6728
सब	-6729
ुद	-6730
ेऽ	-6731
्ट	-6732
▁८	-6733
गां	-6734
तुम	-6735
न्च	-6736
न्स	-6737
राब	-6738
रेव	-6739
वों	-6740
सरं	-6741
▁१४	-6742
कृतः	-6743
गात्	-6744
रपुर	-6745
सहाय	-6746
ामपि	-6747
ुध्य	-6748
्वाल	-6749
▁चमक	-6750
▁जहा	-6751
▁डॉल	-6752
▁दशा	-6753
▁ध्र	-6754
▁पाई	-6755
▁भरा	-6756
▁भली	-6757
▁लगी	-6758
▁विस	-6759
▁सुध	-6760
▁हाल	-6761
त्ताप	-6762
न्याय	-6763
न्हें	-6764
ूर्ति	-6765
▁आसम्	-6766
▁एतां	-6767
▁कमरे	-6768
▁दादी	-6769
▁दौलत	-6770
▁पद्ध	-6771
▁परित	-6772
▁बाढ़	-6773
▁बोलो	-6774
▁मञ्च	-6775
▁मन्थ	-6776
▁मानो	-6777
▁यत्न	-6778
▁रखते	-6779
▁रामो	-6780
▁वाणि	-6781
▁सारी	-6782
मूर्ति	-6783
र्यस्य	-6784
समुदाय	-6785
्यर्थं	-6786
▁आकृति	-6787
▁जगदीप	-6788
▁जानती	-6789
▁धावति	-6790
▁निन्द	-6791
▁प्रभु	-6792
▁बंगाल	-6793
▁भयभीत	-6794
▁मह्यं	-6795
▁मारकर	-6796
▁रहेगा	-6797
▁लेंगे	-6798
▁वितरण	-6799
▁वेदों	-6800
▁स्वाम	-6801
मात्रेण	-6802
▁उच्यते	-6803
▁गतदिने	-6804
▁पुराने	-6805
▁बृहत्त	-6806
▁विशाखा	-6807
▁साक्षी	-6808
समित्याः	-6809
▁अधिनियम	-6810
▁अध्यापक	-6811
▁नक्षत्र	-6812
▁बालिकाः	-6813
▁विपत्ति	-6814
▁संतुष्ट	-6815
▁सात्त्व	-6816
▁हिमपातः	-6817
▁अकुर्वन्	-6818
▁इन्द्रिय	-6819
▁प्रक्षाल	-6820
▁भारतीयों	-6821
▁रामलल्ला	-6822
▁शिक्षकाः	-6823
▁सम्पन्नं	-6824
▁प्रतिभागी	-6825
▁प्राचार्य	-6826
▁गृहीतवन्तः	-6827
▁प्रदर्शितं	-6828
▁विद्यालयेषु	-6829
▁वैज्ञानिकों	-6830
▁मुख्यमन्त्रिणः	-6831
यम	-6832
यौ	-6833
षध	-6834
ैत	-6835
ोम	-6836
खड़	-6837
गते	-6838
गरी	-6839
दीर	-6840
धाई	-6841
नाव	-6842
प्ल	-6843
बला	-6844
मम्	-6845
रान	-6846
षेध	-6847
ाद्	-6848
ासं	-6849
ियल	-6850
ून्	-6851
▁16	-6852
▁कण	-6853
गृहं	-6854
पस्य	-6855
▁आचर	-6856
▁उभय	-6857
▁तभी	-6858
▁तिव	-6859
▁धान	-6860
▁नाथ	-6861
▁पुण	-6862
▁बगी	-6863
च्छेद	-6864
त्पाद	-6865
त्यका	-6866
दाबाद	-6867
दिवसः	-6868
पुष्प	-6869
्यारह	-6870
▁अनिव	-6871
▁गाते	-6872
▁गेंद	-6873
▁जोड़	-6874
▁नींद	-6875
▁फलों	-6876
▁बधाई	-6877
▁बीजे	-6878
▁भुजा	-6879
▁रघुन	-6880
▁रज्ज	-6881
▁स्वं	-6882
▁हमने	-6883
▁हसति	-6884
क्षणम्	-6885
त्यधिक	-6886
भवन्ति	-6887
समाचार	-6888
ान्वित	-6889
▁अन्नं	-6890
▁एकादश	-6891
▁कतिपय	-6892
▁कपड़ा	-6893
▁करोगे	-6894
▁काश्य	-6895
▁किशोर	-6896
▁पारम्	-6897
▁पिताम	-6898
▁पौत्र	-6899
▁बढ़ने	-6900
▁बदलाव	-6901
▁मानता	-6902
▁शृगाल	-6903
▁समीपं	-6904
▁सियार	-6905
जनानाम्	-6906
नेतृत्व	-6907
▁अज्ञात	-6908
▁अभिभाव	-6909
▁क्रमेण	-6910
▁ग्रामं	-6911
▁टूर्ना	-6912
▁तकनीकी	-6913
▁तैयारी	-6914
▁निर्मल	-6915
▁बालकों	-6916
▁मोदिना	-6917
▁लक्ष्म	-6918
▁समेत्य	-6919
▁सूर्यः	-6920
▁अफ्रीका	-6921
▁भवत्याः	-6922
▁मुहूर्त	-6923
▁वक्तव्य	-6924
▁वस्त्रं	-6925
▁विकासाय	-6926
▁तमिलनाडु	-6927
▁प्राप्ता	-6928
▁श्रीमान्	-6929
▁उल्लेखनीय	-6930
▁क्रियन्ते	-6931
▁द्विसहस्र	-6932
▁प्रवृत्ति	-6933
▁प्रातःकाल	-6934
▁मध्याह्ने	-6935
▁अयोध्यायां	-6936
▁टूर्नामेंट	-6937
▁ब्राह्मणों	-6938
▁मार्गदर्शन	-6939
इट	-6940
ंडा	-6941
इनल	-6942
जान	-6943
दरा	-6944
पोष	-6945
बाई	-6946
राय	-6947
शहर	-6948
साय	-6949
िने	-6950
ूनी	-6951
▁50	-6952
▁गल	-6953
▁१२	-6954
▁१३	-6955
एमसी	-6956
गम्य	-6957
गोमा	-6958
दृशः	-6959
नीया	-6960
न्दे	-6961
म्भा	-6962
म्मे	-6963
र्जी	-6964
िनां	-6965
ीयम्	-6966
ूर्व	-6967
ोऽहं	-6968
▁एकल	-6969
▁कपि	-6970
▁खीं	-6971
▁चां	-6972
▁दही	-6973
▁धूप	-6974
▁नाच	-6975
▁नेट	-6976
▁बजा	-6977
▁बनी	-6978
▁शंख	-6979
▁शूर	-6980
▁षड्	-6981
▁सर्	-6982
▁हरण	-6983
▁२०१	-6984
क्रेन	-6985
ङ्ग्ल	-6986
ज्ञात	-6987
त्मना	-6988
भगवद्	-6989
विक्र	-6990
विरोध	-6991
सूचना	-6992
सैनिक	-6993
ारस्य	-6994
्यस्य	-6995
्वलित	-6996
▁अनंत	-6997
▁चञ्च	-6998
▁चर्च	-6999
▁चौदह	-7000
▁नगरी	-7001
▁नम्र	-7002
▁मुनी	-7003
▁लड़ा	-7004
▁समुद	-7005
▁सोचा	-7006
▁स्कू	-7007
▁स्यू	-7008
क्ष्ये	-7009
प्रचार	-7010
▁अपश्य	-7011
▁आदेशः	-7012
▁कन्दु	-7013
▁कियत्	-7014
▁ग्रंथ	-7015
▁जयंती	-7016
▁दुर्व	-7017
▁पड़ता	-7018
▁पृच्छ	-7019
▁मुंबई	-7020
▁लगाया	-7021
▁वदामः	-7022
▁शुल्क	-7023
▁समस्य	-7024
वाधिकार	-7025
▁किसलिए	-7026
▁ग्यारह	-7027
▁जिम्मे	-7028
▁तिवारी	-7029
▁दादाजी	-7030
▁दुर्जन	-7031
▁प्रजाप	-7032
▁प्रवास	-7033
▁सञ्चाल	-7034
▁सर्वैः	-7035
▁स्थितः	-7036
▁अवरुद्ध	-7037
▁कुक्कुर	-7038
▁प्रणाली	-7039
▁प्रभारी	-7040
▁प्रभावी	-7041
▁वर्षाणि	-7042
▁सुमित्र	-7043
प्रशिक्षण	-7044
▁चित्राणि	-7045
▁लोकप्रिय	-7046
▁विश्वासः	-7047
▁संस्कृता	-7048
कार्यक्रमस्य	-7049
▁वादनपर्यन्तं	-7050
',	-7051
गौ	-7052
डर	-7053
मृ	-7054
get	-7055
कित	-7056
नयन	-7057
फ्त	-7058
बाण	-7059
रास	-7060
साद	-7061
ीत्	-7062
ैर्	-7063
्यु	-7064
▁13	-7065
▁ऊं	-7066
▁गह	-7067
▁छा	-7068
▁ज़	-7069
▁शय	-7070
▁हथ	-7071
▁१८	-7072
वासि	-7073
शरीर	-7074
ारोप	-7075
िकता	-7076
ोंकी	-7077
ोचत्	-7078
▁अवा	-7079
▁आशं	-7080
▁ऊना	-7081
▁चंद	-7082
▁दवा	-7083
▁धनु	-7084
▁रूस	-7085
▁लिप	-7086
▁सौं	-7087
▁हटा	-7088
धिकरण	-7089
धिकाः	-7090
बिम्ब	-7091
यात्र	-7092
वर्यः	-7093
वस्तु	-7094
संयोज	-7095
हत्या	-7096
ान्तर	-7097
िकाम्	-7098
ुत्वा	-7099
्यामः	-7100
▁अरुण	-7101
▁अवतर	-7102
▁आपात	-7103
▁इन्द	-7104
▁इष्ट	-7105
▁एकता	-7106
▁डाला	-7107
▁ड्रा	-7108
▁दलेन	-7109
▁दीपा	-7110
▁नायक	-7111
▁नीती	-7112
▁बाधा	-7113
▁भागी	-7114
▁येषु	-7115
▁रेखा	-7116
▁ललित	-7117
▁लेती	-7118
▁विभि	-7119
▁व्यय	-7120
▁व्रत	-7121
▁संगठ	-7122
▁सोलन	-7123
▁होनी	-7124
कन्दुक	-7125
रामायण	-7126
विंशति	-7127
विभागः	-7128
स्वामी	-7129
▁उपकार	-7130
▁किसके	-7131
▁दत्ता	-7132
▁पदार्	-7133
▁पशुओं	-7134
▁बनाते	-7135
▁बाह्य	-7136
▁मृताः	-7137
▁यादवि	-7138
▁लौकिक	-7139
▁विजया	-7140
▁श्रेय	-7141
▁स्रोत	-7142
▁तेषाम्	-7143
▁पुरुषः	-7144
▁मत्स्य	-7145
▁मिलियन	-7146
▁वर्गों	-7147
▁वास्तु	-7148
▁अश्विनी	-7149
▁कस्मिन्	-7150
▁जनजातीय	-7151
▁जायेंगे	-7152
▁दूरदर्श	-7153
▁देवदत्त	-7154
▁प्रज्ञा	-7155
▁मन्दिरं	-7156
▁मार्गों	-7157
▁समीक्षा	-7158
▁हिमाचले	-7159
काङ्ग्रेस	-7160
▁निर्देशं	-7161
▁निर्माति	-7162
▁विज्ञापन	-7163
▁विराजमान	-7164
▁श्रृणोति	-7165
▁गृह्णन्ति	-7166
▁धर्मात्मा	-7167
▁प्रस्तावः	-7168
▁व्यक्तिगत	-7169
▁संस्कृतम्	-7170
▁प्रतिस्पर्धा	-7171
▁प्राप्नुवन्ति	-7172
ud	-7173
फु	-7174
षक	-7175
हु	-7176
ंडल	-7177
ऐसा	-7178
तनं	-7179
तोः	-7180
भूम	-7181
मर्	-7182
यता	-7183
▁इह	-7184
▁नु	-7185
कारण	-7186
क्रो	-7187
गृही	-7188
त्यं	-7189
देशं	-7190
पीएस	-7191
पुरं	-7192
भङ्ग	-7193
राजः	-7194
वदत्	-7195
सारं	-7196
स्तं	-7197
ापुर	-7198
िव्य	-7199
▁आंद	-7200
▁एयर	-7201
▁चात	-7202
▁नमो	-7203
▁पोल	-7204
▁लेप	-7205
▁शशि	-7206
▁सतत	-7207
▁सवे	-7208
▁हरे	-7209
udget	-7210
काण्ड	-7211
कीर्त	-7212
कुण्ड	-7213
ज्यते	-7214
यनस्य	-7215
्यूटर	-7216
▁आगमन	-7217
▁आदमी	-7218
▁उन्म	-7219
▁कच्छ	-7220
▁कानि	-7221
▁केशव	-7222
▁गिरि	-7223
▁जमीन	-7224
▁दूरं	-7225
▁पापी	-7226
▁बाँध	-7227
▁बिता	-7228
▁मक्ख	-7229
▁लागू	-7230
▁वासु	-7231
▁सततं	-7232
ड़ियाँ	-7233
शिक्षक	-7234
संहिता	-7235
िमण्डल	-7236
▁घूमते	-7237
▁घोड़ा	-7238
▁त्रिव	-7239
▁दिखते	-7240
▁देहरा	-7241
▁दैनिक	-7242
▁पूछता	-7243
▁प्रबल	-7244
▁मानते	-7245
▁मिलने	-7246
▁लड़की	-7247
▁वैराग	-7248
▁संजीव	-7249
▁सत्या	-7250
▁सीटें	-7251
▁सुरेश	-7252
▁स्मार	-7253
वर्गस्य	-7254
▁अत्रैव	-7255
▁अहंकार	-7256
▁चत्वार	-7257
▁जयद्रथ	-7258
▁जिनमें	-7259
▁दिखाया	-7260
▁प्रथमे	-7261
▁बीजेपी	-7262
▁बुलाया	-7263
▁भवन्तु	-7264
▁महाबाह	-7265
▁महोदयः	-7266
▁मित्रं	-7267
▁विद्यु	-7268
▁विनम्र	-7269
▁व्यतीत	-7270
▁शिकारी	-7271
▁संशोधन	-7272
▁समर्थन	-7273
▁सुकृति	-7274
▁स्वीकर	-7275
▁अन्धकार	-7276
▁अभिनन्द	-7277
▁आगच्छतु	-7278
▁इदानीम्	-7279
▁कौसल्या	-7280
▁गन्धर्व	-7281
▁प्रवर्ध	-7282
▁मल्लिका	-7283
▁वृक्षों	-7284
▁शारीरिक	-7285
▁शैक्षिक	-7286
▁सुक्खुः	-7287
▁स्निग्ध	-7288
▁कृषकाणां	-7289
▁पक्षियों	-7290
▁प्रसन्नः	-7291
▁मित्राणि	-7292
▁वर्तन्ते	-7293
▁श्रद्धां	-7294
▁अतिरिक्तं	-7295
▁छत्तीसगढ़	-7296
▁लिखितवान्	-7297
▁प्रोक्तवान्	-7298
▁उत्तराखण्डस्य	-7299
-2	-7300
कण	-7301
व्	-7302
ंडी	-7303
ंदा	-7304
कुश	-7305
गमः	-7306
जरी	-7307
जाः	-7308
जाय	-7309
दशा	-7310
पुट	-7311
रोज	-7312
संश	-7313
ापर	-7314
ावः	-7315
ावन	-7316
िनो	-7317
ेणी	-7318
▁अख	-7319
गणना	-7320
ङ्गे	-7321
न्ता	-7322
भ्या	-7323
म्बू	-7324
शाहः	-7325
ष्णं	-7326
सात्	-7327
्लेष	-7328
▁आगम	-7329
▁आधा	-7330
▁उपे	-7331
▁एम्	-7332
▁कर्	-7333
▁कौआ	-7334
▁गता	-7335
▁छिप	-7336
▁तौर	-7337
▁धनी	-7338
▁पीत	-7339
▁रमण	-7340
▁सें	-7341
कृतेः	-7342
लाचरण	-7343
स्जिद	-7344
ह्नवी	-7345
▁असफल	-7346
▁इस्ल	-7347
▁गमना	-7348
▁गाता	-7349
▁चावल	-7350
▁देवा	-7351
▁नगरं	-7352
▁पतति	-7353
▁पाठं	-7354
▁पारं	-7355
▁बतला	-7356
▁भरतः	-7357
▁मलिन	-7358
▁रूपं	-7359
▁शिरः	-7360
▁सपना	-7361
▁साकं	-7362
त्त्वा	-7363
पुरस्य	-7364
▁अखण्ड	-7365
▁अमुना	-7366
▁अवस्थ	-7367
▁कुल्ल	-7368
▁तीसरी	-7369
▁देंगे	-7370
▁फेब्र	-7371
▁मधुरं	-7372
▁लज्जा	-7373
▁वचनों	-7374
▁विहार	-7375
▁वीरता	-7376
▁संदेह	-7377
▁सत्रे	-7378
पत्राणि	-7379
परिवर्त	-7380
▁आंदोलन	-7381
▁आरब्धः	-7382
▁गतिविध	-7383
▁दिनानि	-7384
▁नगरस्य	-7385
▁नायिका	-7386
▁प्रबंध	-7387
▁भ्रातृ	-7388
▁योद्धा	-7389
▁श्रीवा	-7390
▁सड़कों	-7391
▁सृष्टि	-7392
▁अनेकानि	-7393
▁आचार्या	-7394
▁आदिवासी	-7395
▁गणतंत्र	-7396
▁चत्वारः	-7397
▁चत्वारि	-7398
▁दायित्व	-7399
▁मित्रों	-7400
▁सदस्याः	-7401
▁हनुमान्	-7402
भगवद्गीता	-7403
▁अयोध्यां	-7404
▁इत्यस्मै	-7405
▁कुर्यात्	-7406
▁प्रकोष्ठ	-7407
▁प्रतिकूल	-7408
▁प्रारब्ध	-7409
▁श्रमिकों	-7410
▁सम्पत्ति	-7411
▁सर्वाधिक	-7412
▁आरब्धवान्	-7413
▁उद्देश्यं	-7414
▁निर्वाचने	-7415
▁पारम्परिक	-7416
▁प्रत्याशी	-7417
▁यात्रियों	-7418
▁वृत्तान्त	-7419
मन्त्रालयेन	-7420
▁चरणारविन्द	-7421
▁बुद्धिमान्	-7422
▁सम्प्राप्त	-7423
▁कार्यक्रमों	-7424
▁द्रोणाचार्य	-7425
▁संस्कृतभारती	-7426
▁संस्कृतभाषायां	-7427
अनु	-7428
जित	-7429
टर्	-7430
ताय	-7431
तित	-7432
द्द	-7433
निक	-7434
युग	-7435
रात	-7436
रोध	-7437
लिख	-7438
वता	-7439
शिम	-7440
ायक	-7441
▁ओं	-7442
▁कछ	-7443
▁जस	-7444
▁नः	-7445
▁यं	-7446
कुलं	-7447
निगम	-7448
प्रण	-7449
भावः	-7450
लिनी	-7451
वधान	-7452
ालयं	-7453
िन्य	-7454
ेयम्	-7455
ोतरी	-7456
▁अकथ	-7457
▁आसी	-7458
▁चली	-7459
▁चाय	-7460
▁जले	-7461
▁धूम	-7462
▁धूल	-7463
▁नाव	-7464
▁पाक	-7465
▁पीय	-7466
▁मयि	-7467
▁रेड	-7468
▁रोट	-7469
▁शूल	-7470
▁समं	-7471
क्रमण	-7472
ध्ययन	-7473
मान्य	-7474
वर्ती	-7475
िवेदी	-7476
▁आगाम	-7477
▁आदिक	-7478
▁इसकी	-7479
▁इसरो	-7480
▁उतार	-7481
▁करवा	-7482
▁कुसु	-7483
▁क्लब	-7484
▁गुरू	-7485
▁चढ़ा	-7486
▁चुके	-7487
▁तर्क	-7488
▁तिलक	-7489
▁प्रप	-7490
▁बकरी	-7491
▁मुखे	-7492
▁राशि	-7493
▁लाभं	-7494
▁लिखो	-7495
▁व्रज	-7496
▁सभाग	-7497
▁साम्	-7498
▁सोलह	-7499
ंत्रित	-7500
गुरुजी	-7501
त्वात्	-7502
यानस्य	-7503
वर्येण	-7504
ोऽस्मि	-7505
▁अगच्छ	-7506
▁अनन्य	-7507
▁अन्दर	-7508
▁उत्सु	-7509
▁कराया	-7510
▁दूंगा	-7511
▁देखती	-7512
▁पहचान	-7513
▁प्रवी	-7514
▁मिलना	-7515
▁रोकने	-7516
▁विचरण	-7517
▁वेगेन	-7518
▁सब्जी	-7519
▁समाजे	-7520
▁सहितं	-7521
▁सिन्ध	-7522
▁हँसता	-7523
चिन्त्य	-7524
धिकृत्य	-7525
प्रमुखः	-7526
िष्यामि	-7527
▁आरक्षण	-7528
▁आसक्ति	-7529
▁कौन्ते	-7530
▁ग्रामे	-7531
▁बहादुर	-7532
▁वन्दना	-7533
▁सेन्से	-7534
▁अंतर्गत	-7535
▁अधिकांश	-7536
▁अरविन्द	-7537
▁आस्ताम्	-7538
▁उपयुक्त	-7539
▁एवमुक्त	-7540
▁कश्चित्	-7541
▁जाह्नवी	-7542
▁न्यूनतम	-7543
▁परम्परा	-7544
▁वाणिज्य	-7545
▁संपूर्ण	-7546
▁सौभाग्य	-7547
▁अपरपक्षे	-7548
▁आगच्छामि	-7549
▁क्षत्रिय	-7550
▁द्वितीयं	-7551
▁निवसन्ति	-7552
▁पूर्णतया	-7553
▁मन्दिरस्य	-7554
▁स्वाधीनता	-7555
▁स्वीकरोति	-7556
▁हस्ताक्षर	-7557
▁मानवाधिकार	-7558
▁सम्मिलिताः	-7559
▁प्रोत्साहित	-7560
▁स्वीकृतवान्	-7561
उन	-7562
चः	-7563
धू	-7564
हः	-7565
उंड	-7566
चरे	-7567
जना	-7568
तमा	-7569
दलं	-7570
द्ग	-7571
न्ट	-7572
भवं	-7573
भाल	-7574
राश	-7575
वंश	-7576
विन	-7577
ालः	-7578
िनं	-7579
ेगा	-7580
▁गै	-7581
▁नख	-7582
ंगार	-7583
काला	-7584
कृत्	-7585
गीतं	-7586
चिद्	-7587
त्ती	-7588
मानक	-7589
म्मद	-7590
शर्म	-7591
सहित	-7592
स्टर	-7593
ादेश	-7594
ायें	-7595
िक्त	-7596
ुरूप	-7597
▁दलं	-7598
▁नवा	-7599
▁नाप	-7600
▁परे	-7601
▁फीस	-7602
▁भूख	-7603
▁मयू	-7604
▁मरा	-7605
▁रसो	-7606
▁राश	-7607
▁लाए	-7608
▁वेश	-7609
▁शाक	-7610
▁षोड	-7611
▁संद	-7612
ङ्गणे	-7613
चर्या	-7614
टनस्य	-7615
ध्यते	-7616
न्दिर	-7617
न्धान	-7618
मृत्य	-7619
योगेन	-7620
व्याः	-7621
ष्टिः	-7622
स्वाद	-7623
▁अधिव	-7624
▁इंजी	-7625
▁खड्ग	-7626
▁चलती	-7627
▁ज्वर	-7628
▁तेरे	-7629
▁फैला	-7630
▁भीड़	-7631
▁भ्रा	-7632
▁रखता	-7633
▁रानी	-7634
▁लभते	-7635
▁लाइन	-7636
▁व्यस	-7637
▁सख्य	-7638
▁सूची	-7639
करूपेण	-7640
द्वारे	-7641
व्यक्त	-7642
स्थापन	-7643
ान्तरे	-7644
▁आरक्ष	-7645
▁आशंका	-7646
▁आहुति	-7647
▁उठाया	-7648
▁कर्ता	-7649
▁क्रिस	-7650
▁दर्शक	-7651
▁देवाः	-7652
▁धावना	-7653
▁निद्र	-7654
▁पदानि	-7655
▁फैसला	-7656
▁भोजना	-7657
▁मृत्त	-7658
▁युवती	-7659
▁रुद्र	-7660
▁लङ्का	-7661
▁लड़ाई	-7662
▁लिखते	-7663
▁विलाप	-7664
▁वैष्ण	-7665
▁शिविर	-7666
▁सुखम्	-7667
▁स्पृश	-7668
कर्ताओं	-7669
भाषायां	-7670
संरक्षण	-7671
▁अशुद्ध	-7672
▁आनेतुं	-7673
▁इत्यतः	-7674
▁चालयति	-7675
▁तदानीं	-7676
▁दुर्गा	-7677
▁पञ्चदश	-7678
▁परीक्ष	-7679
▁पाठयति	-7680
▁मामलों	-7681
▁रोदिति	-7682
▁विकासः	-7683
▁समावेश	-7684
▁स्वल्प	-7685
संस्कृति	-7686
ानुसारम्	-7687
▁अभिवादन	-7688
▁अमेरिक्	-7689
▁आयोगस्य	-7690
▁आरभ्यते	-7691
▁कौन्तेय	-7692
▁दर्शयति	-7693
▁धर्माणी	-7694
▁बढ़ोतरी	-7695
▁विशेषता	-7696
▁शीघ्रता	-7697
▁समाप्ति	-7698
▁सर्वस्य	-7699
▁सशस्त्र	-7700
क्रीडायां	-7701
▁गृह्णाति	-7702
▁सुविधाएं	-7703
कार्यक्रमे	-7704
▁पृष्टवान्	-7705
▁वर्षेभ्यः	-7706
▁शास्त्रीय	-7707
विद्यालयेषु	-7708
▁पुरुषोत्तम	-7709
▁जयरामठाकुरः	-7710
▁संस्कृतभारत्याः	-7711
:?	-7712
इए	-7713
इड	-7714
चू	-7715
कूट	-7716
तमे	-7717
बर्	-7718
भूव	-7719
वाँ	-7720
शंस	-7721
ादी	-7722
ियर	-7723
ुओं	-7724
ुली	-7725
▁25	-7726
▁उछ	-7727
▁बछ	-7728
कलाप	-7729
क्षर	-7730
गुणं	-7731
न्तो	-7732
ब्दे	-7733
भद्र	-7734
मस्य	-7735
मात्	-7736
यमान	-7737
रंजन	-7738
विपण	-7739
सज्ज	-7740
सन्त	-7741
ूराम	-7742
ृतिः	-7743
ैण्ड	-7744
ैरपि	-7745
▁आरु	-7746
▁कथम	-7747
▁खीर	-7748
▁गोध	-7749
▁जवा	-7750
▁तैः	-7751
▁देओ	-7752
▁नवी	-7753
▁महि	-7754
▁माद	-7755
▁शूट	-7756
कारों	-7757
ग्राह	-7758
बिन्द	-7759
भद्रा	-7760
महिला	-7761
यानम्	-7762
यिष्य	-7763
वक्ता	-7764
ावसरे	-7765
्याणि	-7766
▁इतना	-7767
▁एक्स	-7768
▁खाती	-7769
▁चेति	-7770
▁तयोः	-7771
▁दूरे	-7772
▁देवि	-7773
▁मतदा	-7774
▁मर्त	-7775
▁माधव	-7776
▁योजन	-7777
▁स्वे	-7778
कुलस्य	-7779
टेडियम	-7780
नारायण	-7781
निर्भर	-7782
शक्तिः	-7783
शुल्कं	-7784
संरचना	-7785
सभायाः	-7786
ाभ्यां	-7787
ित्वेन	-7788
िष्यते	-7789
▁अकेला	-7790
▁अधिका	-7791
▁अन्यः	-7792
▁अवदन्	-7793
▁खेलने	-7794
▁जनपदे	-7795
▁तस्या	-7796
▁दत्तं	-7797
▁दिवसः	-7798
▁दुःखं	-7799
▁दुकान	-7800
▁पत्ते	-7801
▁ब्रह्	-7802
▁भरतजी	-7803
▁भित्त	-7804
▁महर्ष	-7805
▁महामु	-7806
▁रुप्य	-7807
कारणात्	-7808
व्यवहार	-7809
शालायां	-7810
ामन्त्र	-7811
▁अधिकाः	-7812
▁इत्यपि	-7813
▁उद्घोष	-7814
▁ऊर्ध्व	-7815
▁ऋषियों	-7816
▁कहलाता	-7817
▁कृतज्ञ	-7818
▁जयशंकर	-7819
▁नासिका	-7820
▁पश्यतु	-7821
▁पाण्डे	-7822
▁बलवान्	-7823
▁भूकम्प	-7824
▁महोदया	-7825
▁यथार्थ	-7826
▁संन्या	-7827
▁सर्वेष	-7828
▁स्वकीय	-7829
क्षेत्रं	-7830
क्ष्यामि	-7831
भ्यन्तरे	-7832
▁अन्वेषण	-7833
▁अभिनेता	-7834
▁अस्मात्	-7835
▁उच्चारण	-7836
▁उपविश्य	-7837
▁कार्यरत	-7838
▁किन्नौर	-7839
▁चतुर्दश	-7840
▁पण्डितः	-7841
▁पत्रिका	-7842
▁पर्वतीय	-7843
▁पुरोहित	-7844
▁प्रचण्ड	-7845
▁यात्रां	-7846
▁रिकॉर्ड	-7847
▁वृद्धिः	-7848
न्द्रगोमा	-7849
▁केंद्रों	-7850
▁दरिद्रता	-7851
▁द्वितीयः	-7852
▁पर्यटकाः	-7853
▁प्रदत्तः	-7854
▁प्रवर्तन	-7855
▁प्राणाया	-7856
▁उद्यानपाल	-7857
▁परित्यज्य	-7858
▁प्राधिकरण	-7859
▁स्वादिष्ट	-7860
▁स्वीकृत्य	-7861
▁रूप्यकाणां	-7862
▁व्याख्यानं	-7863
▁स्नातकोत्तर	-7864
▁अवसरेऽस्मिन्	-7865
▁मुख्यमन्त्रिणा	-7866
गड	-7867
डो	-7868
हल	-7869
हू	-7870
▁	-7871
्	-7872
ा	-7873
र	-7874
त	-7875
क	-7876
ि	-7877
न	-7878
े	-7879
स	-7880
य	-7881
म	-7882
व	-7883
ं	-7884
प	-7885
ह	-7886
ी	-7887
द	-7888
ो	-7889
ु	-7890
ल	-7891
।	-7892
ग	-7893
श	-7894
ज	-7895
ः	-7896
ष	-7897
अ	-7898
भ	-7899
च	-7900
ै	-7901
ब	-7902
ध	-7903
ण	-7904
थ	-7905
ू	-7906
,	-7907
आ	-7908
ए	-7909
ृ	-7910
ट	-7911
उ	-7912
ख	-7913
ड	-7914
इ	-7915
-	-7916
छ	-7917
़	-7918
औ	-7919
ौ	-7920
ँ	-7921
ठ	-7922
घ	-7923
ई	-7924
ञ	-7925
फ	-7926
?	-7927
.	-7928
:	-7929
ङ	-7930
'	-7931
ओ	-7932
ढ	-7933
॥	-7934
!	-7935
(	-7936
)	-7937
ऽ	-7938
ॉ	-7939
झ	-7940
–	-7941
0	-7942
ऐ	-7943
"	-7944
ऊ	-7945
1	-7946
०	-7947
2	-7948
२	-7949
१	-7950
ऋ	-7951
|	-7952
5	-7953
५	-7954
4	-7955
3	-7956
४	-7957
३	-7958
9	-7959
6	-7960
६	-7961
ऑ	-7962
७	-7963
९	-7964
7	-7965
8	-7966
८	-7967
;	-7968
’	-7969
s	-7970
‘	-7971
e	-7972
“	-7973
S	-7974
]	-7975
[	-7976
ॅ	-7977
i	-7978
t	-7979
”	-7980
n	-7981
/	-7982
a	-7983
o	-7984
d	-7985
u	-7986
r	-7987
g	-7988
%	-7989
l	-7990
m	-7991
‍	-7992
+	-7993
ळ	-7994
A	-7995
